TRT-8500-EntropyCalibration2
input: 3fddcead
preprocessor/transpose:0_0: 3fddcead
(Unnamed Layer* 1) [Constant]_output: 391094f9
preprocessor/scale:0_1: 3cf8860b
(Unnamed Layer* 3) [Constant]_output: 3c8bb257
preprocessor/mean:0_2: 3c9d8fe0
StatefulPartitionedCall/efficientdet-d5/stem_bn/FusedBatchNormV3:0: 3cb13592
StatefulPartitionedCall/efficientdet-d5/stem_activation/Sigmoid:0: 3bfd2a55
StatefulPartitionedCall/efficientdet-d5/stem_activation/mul_1:0: 3ca596c8
StatefulPartitionedCall/efficientdet-d5/block1a_bn/FusedBatchNormV3:0: 3de4c580
StatefulPartitionedCall/efficientdet-d5/block1a_activation/Sigmoid:0: 3bfb870e
StatefulPartitionedCall/efficientdet-d5/block1a_activation/mul_1:0: 3ddf9caf
StatefulPartitionedCall/efficientdet-d5/block1a_se_squeeze/Mean:0: 3c7c23e8
StatefulPartitionedCall/efficientdet-d5/block1a_se_squeeze/Mean_Squeeze__4983:0: 3c7c23e8
StatefulPartitionedCall/efficientdet-d5/block1a_se_reduce/BiasAdd__121:0: 3c7c23e8
StatefulPartitionedCall/efficientdet-d5/block1a_se_reduce/BiasAdd:0: 3c829050
StatefulPartitionedCall/efficientdet-d5/block1a_se_reduce/Sigmoid:0: 3c0875a4
StatefulPartitionedCall/efficientdet-d5/block1a_se_reduce/mul_1:0: 3c569191
StatefulPartitionedCall/efficientdet-d5/block1a_se_expand/BiasAdd:0: 3c445dbb
StatefulPartitionedCall/efficientdet-d5/block1a_se_expand/Sigmoid:0: 3beee6c4
StatefulPartitionedCall/efficientdet-d5/block1a_se_excite/mul:0: 3d0e452e
StatefulPartitionedCall/efficientdet-d5/block1a_project_bn/FusedBatchNormV3:0: 3d3ee26d
StatefulPartitionedCall/efficientdet-d5/block1b_dwconv/depthwise:0: 3d47dcf9
StatefulPartitionedCall/efficientdet-d5/block1b_bn/FusedBatchNormV3:0: 3dca612a
StatefulPartitionedCall/efficientdet-d5/block1b_activation/Sigmoid:0: 3bff0e1c
StatefulPartitionedCall/efficientdet-d5/block1b_activation/mul_1:0: 3dc6e154
StatefulPartitionedCall/efficientdet-d5/block1b_se_squeeze/Mean:0: 3c43c950
StatefulPartitionedCall/efficientdet-d5/block1b_se_squeeze/Mean_Squeeze__5013:0: 3c43c950
StatefulPartitionedCall/efficientdet-d5/block1b_se_reduce/BiasAdd__153:0: 3c43c950
StatefulPartitionedCall/efficientdet-d5/block1b_se_reduce/BiasAdd:0: 3be17bf9
StatefulPartitionedCall/efficientdet-d5/block1b_se_reduce/Sigmoid:0: 3bb8d9cd
StatefulPartitionedCall/efficientdet-d5/block1b_se_reduce/mul_1:0: 3ba54a53
StatefulPartitionedCall/efficientdet-d5/block1b_se_expand/BiasAdd:0: 3b1ce18c
StatefulPartitionedCall/efficientdet-d5/block1b_se_expand/Sigmoid:0: 3b968d30
StatefulPartitionedCall/efficientdet-d5/block1b_se_excite/mul:0: 3d403141
StatefulPartitionedCall/efficientdet-d5/block1b_project_bn/FusedBatchNormV3:0: 3ceaa3a5
StatefulPartitionedCall/efficientdet-d5/block1b_add/add:0: 3d3f3e8d
StatefulPartitionedCall/efficientdet-d5/block1c_bn/FusedBatchNormV3:0: 3d7680ef
StatefulPartitionedCall/efficientdet-d5/block1c_activation/Sigmoid:0: 3c00a953
StatefulPartitionedCall/efficientdet-d5/block1c_activation/mul_1:0: 3d1781de
StatefulPartitionedCall/efficientdet-d5/block1c_se_squeeze/Mean:0: 3ca9d4c8
StatefulPartitionedCall/efficientdet-d5/block1c_se_squeeze/Mean_Squeeze__4963:0: 3ca9d4c8
StatefulPartitionedCall/efficientdet-d5/block1c_se_reduce/BiasAdd__185:0: 3ca9d4c8
StatefulPartitionedCall/efficientdet-d5/block1c_se_reduce/BiasAdd:0: 3c96f5fb
StatefulPartitionedCall/efficientdet-d5/block1c_se_reduce/Sigmoid:0: 3c028d52
StatefulPartitionedCall/efficientdet-d5/block1c_se_reduce/mul_1:0: 3c71491f
StatefulPartitionedCall/efficientdet-d5/block1c_se_expand/BiasAdd:0: 3bc05be4
StatefulPartitionedCall/efficientdet-d5/block1c_se_expand/Sigmoid:0: 3baea47d
StatefulPartitionedCall/efficientdet-d5/block1c_se_excite/mul:0: 3c9cc69b
StatefulPartitionedCall/efficientdet-d5/block1c_project_bn/FusedBatchNormV3:0: 3c8105a8
StatefulPartitionedCall/efficientdet-d5/block1c_add/add:0: 3d29cd33
StatefulPartitionedCall/efficientdet-d5/block2a_expand_bn/FusedBatchNormV3:0: 3d9781d7
StatefulPartitionedCall/efficientdet-d5/block2a_expand_activation/Sigmoid:0: 3c009932
StatefulPartitionedCall/efficientdet-d5/block2a_expand_activation/mul_1:0: 3d2efa05
StatefulPartitionedCall/efficientdet-d5/block2a_bn/FusedBatchNormV3:0: 3d1e4ee4
StatefulPartitionedCall/efficientdet-d5/block2a_activation/Sigmoid:0: 3c01d2fb
StatefulPartitionedCall/efficientdet-d5/block2a_activation/mul_1:0: 3cfa979c
StatefulPartitionedCall/efficientdet-d5/block2a_se_squeeze/Mean:0: 3d0e812b
StatefulPartitionedCall/efficientdet-d5/block2a_se_squeeze/Mean_Squeeze__5023:0: 3d0e812b
StatefulPartitionedCall/efficientdet-d5/block2a_se_reduce/BiasAdd__229:0: 3d0e812b
StatefulPartitionedCall/efficientdet-d5/block2a_se_reduce/BiasAdd:0: 3da7a9ba
StatefulPartitionedCall/efficientdet-d5/block2a_se_reduce/Sigmoid:0: 3c03b597
StatefulPartitionedCall/efficientdet-d5/block2a_se_reduce/mul_1:0: 3db0ebb5
StatefulPartitionedCall/efficientdet-d5/block2a_se_expand/BiasAdd:0: 3d0a2883
StatefulPartitionedCall/efficientdet-d5/block2a_se_expand/Sigmoid:0: 3bfeb11d
StatefulPartitionedCall/efficientdet-d5/block2a_se_excite/mul:0: 3cb8671f
StatefulPartitionedCall/efficientdet-d5/block2a_project_bn/FusedBatchNormV3:0: 3cf44eef
StatefulPartitionedCall/efficientdet-d5/block2b_expand_conv/Conv2D:0: 3c8cb0bb
StatefulPartitionedCall/efficientdet-d5/block2b_expand_bn/FusedBatchNormV3:0: 3ca7be3b
StatefulPartitionedCall/efficientdet-d5/block2b_expand_activation/Sigmoid:0: 3bf7d7aa
StatefulPartitionedCall/efficientdet-d5/block2b_expand_activation/mul_1:0: 3ca5ddc3
StatefulPartitionedCall/efficientdet-d5/block2b_bn/FusedBatchNormV3:0: 3bf4433d
StatefulPartitionedCall/efficientdet-d5/block2b_activation/Sigmoid:0: 3bba6c51
StatefulPartitionedCall/efficientdet-d5/block2b_activation/mul_1:0: 3bb19257
StatefulPartitionedCall/efficientdet-d5/block2b_se_squeeze/Mean:0: 3b75ed66
StatefulPartitionedCall/efficientdet-d5/block2b_se_squeeze/Mean_Squeeze__4959:0: 3b75ed66
StatefulPartitionedCall/efficientdet-d5/block2b_se_reduce/BiasAdd__273:0: 3b75ed66
StatefulPartitionedCall/efficientdet-d5/block2b_se_reduce/BiasAdd:0: 3ac1dbf1
StatefulPartitionedCall/efficientdet-d5/block2b_se_reduce/Sigmoid:0: 3b8d2ac9
StatefulPartitionedCall/efficientdet-d5/block2b_se_reduce/mul_1:0: 3a508b92
StatefulPartitionedCall/efficientdet-d5/block2b_se_expand/BiasAdd:0: 39c54f15
StatefulPartitionedCall/efficientdet-d5/block2b_se_expand/Sigmoid:0: 3b8295fd
StatefulPartitionedCall/efficientdet-d5/block2b_se_excite/mul:0: 3b32bab3
StatefulPartitionedCall/efficientdet-d5/block2b_project_bn/FusedBatchNormV3:0: 3b5dc9b3
StatefulPartitionedCall/efficientdet-d5/block2b_add/add:0: 3d0ba7bc
StatefulPartitionedCall/efficientdet-d5/block2c_expand_bn/FusedBatchNormV3:0: 3d63f8dd
StatefulPartitionedCall/efficientdet-d5/block2c_expand_activation/Sigmoid:0: 3c034a5d
StatefulPartitionedCall/efficientdet-d5/block2c_expand_activation/mul_1:0: 3d40264b
StatefulPartitionedCall/efficientdet-d5/block2c_bn/FusedBatchNormV3:0: 3c6eecf8
StatefulPartitionedCall/efficientdet-d5/block2c_activation/Sigmoid:0: 3be80355
StatefulPartitionedCall/efficientdet-d5/block2c_activation/mul_1:0: 3c2334a9
StatefulPartitionedCall/efficientdet-d5/block2c_se_squeeze/Mean:0: 3beaac1e
StatefulPartitionedCall/efficientdet-d5/block2c_se_squeeze/Mean_Squeeze__5011:0: 3beaac1e
StatefulPartitionedCall/efficientdet-d5/block2c_se_reduce/BiasAdd__317:0: 3beaac1e
StatefulPartitionedCall/efficientdet-d5/block2c_se_reduce/BiasAdd:0: 3aea7f8f
StatefulPartitionedCall/efficientdet-d5/block2c_se_reduce/Sigmoid:0: 3b90033f
StatefulPartitionedCall/efficientdet-d5/block2c_se_reduce/mul_1:0: 3a806370
StatefulPartitionedCall/efficientdet-d5/block2c_se_expand/BiasAdd:0: 39fdb065
StatefulPartitionedCall/efficientdet-d5/block2c_se_expand/Sigmoid:0: 3b8397c7
StatefulPartitionedCall/efficientdet-d5/block2c_se_excite/mul:0: 3bc4ac0f
StatefulPartitionedCall/efficientdet-d5/block2c_project_bn/FusedBatchNormV3:0: 3b3aa5fb
StatefulPartitionedCall/efficientdet-d5/block2c_add/add:0: 3d1ade63
StatefulPartitionedCall/efficientdet-d5/block2d_expand_bn/FusedBatchNormV3:0: 3d1e7f29
StatefulPartitionedCall/efficientdet-d5/block2d_expand_activation/Sigmoid:0: 3c0752b2
StatefulPartitionedCall/efficientdet-d5/block2d_expand_activation/mul_1:0: 3d127c31
StatefulPartitionedCall/efficientdet-d5/block2d_bn/FusedBatchNormV3:0: 3ccb2075
StatefulPartitionedCall/efficientdet-d5/block2d_activation/Sigmoid:0: 3bfb53fb
StatefulPartitionedCall/efficientdet-d5/block2d_activation/mul_1:0: 3bcb5637
StatefulPartitionedCall/efficientdet-d5/block2d_se_squeeze/Mean:0: 3b335ed9
StatefulPartitionedCall/efficientdet-d5/block2d_se_squeeze/Mean_Squeeze__5021:0: 3b335ed9
StatefulPartitionedCall/efficientdet-d5/block2d_se_reduce/BiasAdd__361:0: 3b335ed9
StatefulPartitionedCall/efficientdet-d5/block2d_se_reduce/BiasAdd:0: 3bf200ab
StatefulPartitionedCall/efficientdet-d5/block2d_se_reduce/Sigmoid:0: 3bc95345
StatefulPartitionedCall/efficientdet-d5/block2d_se_reduce/mul_1:0: 3bb7916d
StatefulPartitionedCall/efficientdet-d5/block2d_se_expand/BiasAdd:0: 3aabecc8
StatefulPartitionedCall/efficientdet-d5/block2d_se_expand/Sigmoid:0: 3b8d30a1
StatefulPartitionedCall/efficientdet-d5/block2d_se_excite/mul:0: 3bbdb2cd
StatefulPartitionedCall/efficientdet-d5/block2d_project_bn/FusedBatchNormV3:0: 3b8eade9
StatefulPartitionedCall/efficientdet-d5/block2d_add/add:0: 3d1b0164
StatefulPartitionedCall/efficientdet-d5/block2e_expand_bn/FusedBatchNormV3:0: 3d23cfe2
StatefulPartitionedCall/efficientdet-d5/block2e_expand_activation/Sigmoid:0: 3c079f49
StatefulPartitionedCall/efficientdet-d5/block2e_expand_activation/mul_1:0: 3d21463c
StatefulPartitionedCall/efficientdet-d5/block2e_bn/FusedBatchNormV3:0: 3cb11e12
StatefulPartitionedCall/efficientdet-d5/block2e_activation/Sigmoid:0: 3c004e57
StatefulPartitionedCall/efficientdet-d5/block2e_activation/mul_1:0: 3c4a51e5
StatefulPartitionedCall/efficientdet-d5/block2e_se_squeeze/Mean:0: 3c24db68
StatefulPartitionedCall/efficientdet-d5/block2e_se_squeeze/Mean_Squeeze__4993:0: 3c24db68
StatefulPartitionedCall/efficientdet-d5/block2e_se_reduce/BiasAdd__405:0: 3c24db68
StatefulPartitionedCall/efficientdet-d5/block2e_se_reduce/BiasAdd:0: 3cd0d04d
StatefulPartitionedCall/efficientdet-d5/block2e_se_reduce/Sigmoid:0: 3bf83bdc
StatefulPartitionedCall/efficientdet-d5/block2e_se_reduce/mul_1:0: 3ccf942a
StatefulPartitionedCall/efficientdet-d5/block2e_se_expand/BiasAdd:0: 3bb361d9
StatefulPartitionedCall/efficientdet-d5/block2e_se_expand/Sigmoid:0: 3bb8c4d6
StatefulPartitionedCall/efficientdet-d5/block2e_se_excite/mul:0: 3c01493b
StatefulPartitionedCall/efficientdet-d5/block2e_project_bn/FusedBatchNormV3:0: 3c878eb4
StatefulPartitionedCall/efficientdet-d5/block2e_add/add:0: 3cde803f
StatefulPartitionedCall/efficientdet-d5/block3a_expand_bn/FusedBatchNormV3:0: 3c880ca9
StatefulPartitionedCall/efficientdet-d5/block3a_expand_activation/Sigmoid:0: 3be8eade
StatefulPartitionedCall/efficientdet-d5/block3a_expand_activation/mul_1:0: 3c65fec8
StatefulPartitionedCall/efficientdet-d5/block3a_bn/FusedBatchNormV3:0: 3c81c6f3
StatefulPartitionedCall/efficientdet-d5/block3a_activation/Sigmoid:0: 3ba5f5a0
StatefulPartitionedCall/efficientdet-d5/block3a_activation/mul_1:0: 3b3a98bd
StatefulPartitionedCall/efficientdet-d5/block3a_se_squeeze/Mean:0: 3b05b55b
StatefulPartitionedCall/efficientdet-d5/block3a_se_squeeze/Mean_Squeeze__5029:0: 3b05b55b
StatefulPartitionedCall/efficientdet-d5/block3a_se_reduce/BiasAdd__449:0: 3b05b55b
StatefulPartitionedCall/efficientdet-d5/block3a_se_reduce/BiasAdd:0: 3b1f659c
StatefulPartitionedCall/efficientdet-d5/block3a_se_reduce/Sigmoid:0: 3b95a362
StatefulPartitionedCall/efficientdet-d5/block3a_se_reduce/mul_1:0: 3a87832d
StatefulPartitionedCall/efficientdet-d5/block3a_se_expand/BiasAdd:0: 3a421fb2
StatefulPartitionedCall/efficientdet-d5/block3a_se_expand/Sigmoid:0: 3ba45f86
StatefulPartitionedCall/efficientdet-d5/block3a_se_excite/mul:0: 3ab769fa
StatefulPartitionedCall/efficientdet-d5/block3a_project_bn/FusedBatchNormV3:0: 3acc1bdb
StatefulPartitionedCall/efficientdet-d5/block3b_expand_conv/Conv2D:0: 39917a93
StatefulPartitionedCall/efficientdet-d5/block3b_expand_bn/FusedBatchNormV3:0: 3abf031f
StatefulPartitionedCall/efficientdet-d5/block3b_expand_activation/Sigmoid:0: 3b927611
StatefulPartitionedCall/efficientdet-d5/block3b_expand_activation/mul_1:0: 3a2b29bc
StatefulPartitionedCall/efficientdet-d5/block3b_bn/FusedBatchNormV3:0: 3a269184
StatefulPartitionedCall/efficientdet-d5/block3b_activation/Sigmoid:0: 3b8222ec
StatefulPartitionedCall/efficientdet-d5/block3b_activation/mul_1:0: 39b29782
StatefulPartitionedCall/efficientdet-d5/block3b_se_squeeze/Mean:0: 391f71da
StatefulPartitionedCall/efficientdet-d5/block3b_se_squeeze/Mean_Squeeze__5001:0: 391f71da
StatefulPartitionedCall/efficientdet-d5/block3b_se_reduce/BiasAdd__493:0: 391f71da
StatefulPartitionedCall/efficientdet-d5/block3b_se_reduce/BiasAdd:0: 397d5f32
StatefulPartitionedCall/efficientdet-d5/block3b_se_reduce/Sigmoid:0: 3b81a2c1
StatefulPartitionedCall/efficientdet-d5/block3b_se_reduce/mul_1:0: 38c58727
StatefulPartitionedCall/efficientdet-d5/block3b_se_expand/BiasAdd:0: 38db457e
StatefulPartitionedCall/efficientdet-d5/block3b_se_expand/Sigmoid:0: 3b816a10
StatefulPartitionedCall/efficientdet-d5/block3b_se_excite/mul:0: 3932606a
StatefulPartitionedCall/efficientdet-d5/block3b_project_bn/FusedBatchNormV3:0: 3a41dff9
StatefulPartitionedCall/efficientdet-d5/block3b_add/add:0: 3b356846
StatefulPartitionedCall/efficientdet-d5/block3c_expand_bn/FusedBatchNormV3:0: 3b23aa67
StatefulPartitionedCall/efficientdet-d5/block3c_expand_activation/Sigmoid:0: 3b96162f
StatefulPartitionedCall/efficientdet-d5/block3c_expand_activation/mul_1:0: 3aa82a41
StatefulPartitionedCall/efficientdet-d5/block3c_bn/FusedBatchNormV3:0: 3a274053
StatefulPartitionedCall/efficientdet-d5/block3c_activation/Sigmoid:0: 3b826aa1
StatefulPartitionedCall/efficientdet-d5/block3c_activation/mul_1:0: 39add6c4
StatefulPartitionedCall/efficientdet-d5/block3c_se_squeeze/Mean:0: 395a7daa
StatefulPartitionedCall/efficientdet-d5/block3c_se_squeeze/Mean_Squeeze__5007:0: 395a7daa
StatefulPartitionedCall/efficientdet-d5/block3c_se_reduce/BiasAdd__537:0: 395a7daa
StatefulPartitionedCall/efficientdet-d5/block3c_se_reduce/BiasAdd:0: 394ffa54
StatefulPartitionedCall/efficientdet-d5/block3c_se_reduce/Sigmoid:0: 3b81e0b2
StatefulPartitionedCall/efficientdet-d5/block3c_se_reduce/mul_1:0: 38cec3a0
StatefulPartitionedCall/efficientdet-d5/block3c_se_expand/BiasAdd:0: 39077a15
StatefulPartitionedCall/efficientdet-d5/block3c_se_expand/Sigmoid:0: 3b814b38
StatefulPartitionedCall/efficientdet-d5/block3c_se_excite/mul:0: 38e3f7bd
StatefulPartitionedCall/efficientdet-d5/block3c_project_bn/FusedBatchNormV3:0: 3a153c86
StatefulPartitionedCall/efficientdet-d5/block3c_add/add:0: 3b625c67
StatefulPartitionedCall/efficientdet-d5/block3d_expand_bn/FusedBatchNormV3:0: 3af5246f
StatefulPartitionedCall/efficientdet-d5/block3d_expand_activation/Sigmoid:0: 3bba4f9f
StatefulPartitionedCall/efficientdet-d5/block3d_expand_activation/mul_1:0: 3a8de560
StatefulPartitionedCall/efficientdet-d5/block3d_bn/FusedBatchNormV3:0: 3a59bb6b
StatefulPartitionedCall/efficientdet-d5/block3d_activation/Sigmoid:0: 3b822043
StatefulPartitionedCall/efficientdet-d5/block3d_activation/mul_1:0: 39d8122b
StatefulPartitionedCall/efficientdet-d5/block3d_se_squeeze/Mean:0: 39167f08
StatefulPartitionedCall/efficientdet-d5/block3d_se_squeeze/Mean_Squeeze__4985:0: 39167f08
StatefulPartitionedCall/efficientdet-d5/block3d_se_reduce/BiasAdd__581:0: 39167f08
StatefulPartitionedCall/efficientdet-d5/block3d_se_reduce/BiasAdd:0: 392eb56c
StatefulPartitionedCall/efficientdet-d5/block3d_se_reduce/Sigmoid:0: 3b821ac4
StatefulPartitionedCall/efficientdet-d5/block3d_se_reduce/mul_1:0: 38aed3a7
StatefulPartitionedCall/efficientdet-d5/block3d_se_expand/BiasAdd:0: 38e507a4
StatefulPartitionedCall/efficientdet-d5/block3d_se_expand/Sigmoid:0: 3b815f71
StatefulPartitionedCall/efficientdet-d5/block3d_se_excite/mul:0: 39579f73
StatefulPartitionedCall/efficientdet-d5/block3d_project_bn/FusedBatchNormV3:0: 39da3175
StatefulPartitionedCall/efficientdet-d5/block3d_add/add:0: 3b438327
StatefulPartitionedCall/efficientdet-d5/block3e_expand_bn/FusedBatchNormV3:0: 3acd9446
StatefulPartitionedCall/efficientdet-d5/block3e_expand_activation/Sigmoid:0: 3baa4dac
StatefulPartitionedCall/efficientdet-d5/block3e_expand_activation/mul_1:0: 3a6ab13c
StatefulPartitionedCall/efficientdet-d5/block3e_bn/FusedBatchNormV3:0: 39e24962
StatefulPartitionedCall/efficientdet-d5/block3e_activation/Sigmoid:0: 3b83581e
StatefulPartitionedCall/efficientdet-d5/block3e_activation/mul_1:0: 395f2a07
StatefulPartitionedCall/efficientdet-d5/block3e_se_squeeze/Mean:0: 39514577
StatefulPartitionedCall/efficientdet-d5/block3e_se_squeeze/Mean_Squeeze__5005:0: 39514577
StatefulPartitionedCall/efficientdet-d5/block3e_se_reduce/BiasAdd__625:0: 39514577
StatefulPartitionedCall/efficientdet-d5/block3e_se_reduce/BiasAdd:0: 399179fc
StatefulPartitionedCall/efficientdet-d5/block3e_se_reduce/Sigmoid:0: 3ba0fcd8
StatefulPartitionedCall/efficientdet-d5/block3e_se_reduce/mul_1:0: 38b441bb
StatefulPartitionedCall/efficientdet-d5/block3e_se_expand/BiasAdd:0: 38ccddbd
StatefulPartitionedCall/efficientdet-d5/block3e_se_expand/Sigmoid:0: 3b816f3f
StatefulPartitionedCall/efficientdet-d5/block3e_se_excite/mul:0: 38df5222
StatefulPartitionedCall/efficientdet-d5/block3e_project_bn/FusedBatchNormV3:0: 38db72d2
StatefulPartitionedCall/efficientdet-d5/block3e_add/add:0: 3b5d22ae
StatefulPartitionedCall/efficientdet-d5/fpn_cell_0_fnode3resample_0_0_bn/FusedBatchNormV3:0: 3d1c8efb
StatefulPartitionedCall/efficientdet-d5/block4a_expand_bn/FusedBatchNormV3:0: 39fdb7e0
(Unnamed Layer* 262) [Shuffle]_output: 3c076fe3
StatefulPartitionedCall/efficientdet-d5/fusion_fpn_cell_0_fnode3/truediv:0: 3d245210
StatefulPartitionedCall/efficientdet-d5/block4a_expand_activation/Sigmoid:0: 3b84bea4
StatefulPartitionedCall/efficientdet-d5/block4a_expand_activation/mul_1:0: 397d6f47
StatefulPartitionedCall/efficientdet-d5/block4a_bn/FusedBatchNormV3:0: 3926d171
StatefulPartitionedCall/efficientdet-d5/block4a_activation/Sigmoid:0: 3b8174e0
StatefulPartitionedCall/efficientdet-d5/block4a_activation/mul_1:0: 38aa17d2
StatefulPartitionedCall/efficientdet-d5/block4a_se_squeeze/Mean:0: 386a59d1
StatefulPartitionedCall/efficientdet-d5/block4a_se_squeeze/Mean_Squeeze__5009:0: 386a59d1
StatefulPartitionedCall/efficientdet-d5/block4a_se_reduce/BiasAdd__681:0: 386a59d1
StatefulPartitionedCall/efficientdet-d5/block4a_se_reduce/BiasAdd:0: 3821fdca
StatefulPartitionedCall/efficientdet-d5/block4a_se_reduce/Sigmoid:0: 3b81341f
StatefulPartitionedCall/efficientdet-d5/block4a_se_reduce/mul_1:0: 37af6c7d
StatefulPartitionedCall/efficientdet-d5/block4a_se_expand/BiasAdd:0: 36ddb95f
StatefulPartitionedCall/efficientdet-d5/block4a_se_expand/Sigmoid:0: 3c011382
StatefulPartitionedCall/efficientdet-d5/block4a_se_excite/mul:0: 382a1bb8
StatefulPartitionedCall/efficientdet-d5/block4a_project_bn/FusedBatchNormV3:0: 39601882
StatefulPartitionedCall/efficientdet-d5/block4b_expand_conv/Conv2D:0: 381b8499
StatefulPartitionedCall/efficientdet-d5/block4b_expand_bn/FusedBatchNormV3:0: 38a5d379
StatefulPartitionedCall/efficientdet-d5/block4b_expand_activation/Sigmoid:0: 3b817507
StatefulPartitionedCall/efficientdet-d5/block4b_expand_activation/mul_1:0: 382556d5
StatefulPartitionedCall/efficientdet-d5/block4b_bn/FusedBatchNormV3:0: 389e8ef4
StatefulPartitionedCall/efficientdet-d5/block4b_activation/Sigmoid:0: 3b817b83
StatefulPartitionedCall/efficientdet-d5/block4b_activation/mul_1:0: 381e91ad
StatefulPartitionedCall/efficientdet-d5/block4b_se_squeeze/Mean:0: 384bef56
StatefulPartitionedCall/efficientdet-d5/block4b_se_squeeze/Mean_Squeeze__4953:0: 384bef56
StatefulPartitionedCall/efficientdet-d5/block4b_se_reduce/BiasAdd__725:0: 384bef56
StatefulPartitionedCall/efficientdet-d5/block4b_se_reduce/BiasAdd:0: 3824fb60
StatefulPartitionedCall/efficientdet-d5/block4b_se_reduce/Sigmoid:0: 3b812c12
StatefulPartitionedCall/efficientdet-d5/block4b_se_reduce/mul_1:0: 37a564d9
StatefulPartitionedCall/efficientdet-d5/block4b_se_expand/BiasAdd:0: 35f5d825
StatefulPartitionedCall/efficientdet-d5/block4b_se_expand/Sigmoid:0: 3b810dac
StatefulPartitionedCall/efficientdet-d5/block4b_se_excite/mul:0: 379e9315
StatefulPartitionedCall/efficientdet-d5/block4b_project_bn/FusedBatchNormV3:0: 393610f8
StatefulPartitionedCall/efficientdet-d5/block4b_add/add:0: 39d21ddf
StatefulPartitionedCall/efficientdet-d5/block4c_expand_bn/FusedBatchNormV3:0: 38affbaf
StatefulPartitionedCall/efficientdet-d5/block4c_expand_activation/Sigmoid:0: 3b817c0b
StatefulPartitionedCall/efficientdet-d5/block4c_expand_activation/mul_1:0: 383101e2
StatefulPartitionedCall/efficientdet-d5/block4c_bn/FusedBatchNormV3:0: 38c89589
StatefulPartitionedCall/efficientdet-d5/block4c_activation/Sigmoid:0: 3b8177b7
StatefulPartitionedCall/efficientdet-d5/block4c_activation/mul_1:0: 38287d2c
StatefulPartitionedCall/efficientdet-d5/block4c_se_squeeze/Mean:0: 3838161a
StatefulPartitionedCall/efficientdet-d5/block4c_se_squeeze/Mean_Squeeze__5015:0: 3838161a
StatefulPartitionedCall/efficientdet-d5/block4c_se_reduce/BiasAdd__769:0: 3838161a
StatefulPartitionedCall/efficientdet-d5/block4c_se_reduce/BiasAdd:0: 387493e8
StatefulPartitionedCall/efficientdet-d5/block4c_se_reduce/Sigmoid:0: 3b81326e
StatefulPartitionedCall/efficientdet-d5/block4c_se_reduce/mul_1:0: 37db0582
StatefulPartitionedCall/efficientdet-d5/block4c_se_expand/BiasAdd:0: 35fd2728
StatefulPartitionedCall/efficientdet-d5/block4c_se_expand/Sigmoid:0: 3b810d9c
StatefulPartitionedCall/efficientdet-d5/block4c_se_excite/mul:0: 37a87cc1
StatefulPartitionedCall/efficientdet-d5/block4c_project_bn/FusedBatchNormV3:0: 396c4215
StatefulPartitionedCall/efficientdet-d5/block4c_add/add:0: 39e4c6b3
StatefulPartitionedCall/efficientdet-d5/block4d_expand_bn/FusedBatchNormV3:0: 38d8fefd
StatefulPartitionedCall/efficientdet-d5/block4d_expand_activation/Sigmoid:0: 3b817b79
StatefulPartitionedCall/efficientdet-d5/block4d_expand_activation/mul_1:0: 38750af9
StatefulPartitionedCall/efficientdet-d5/block4d_bn/FusedBatchNormV3:0: 38b55bc6
StatefulPartitionedCall/efficientdet-d5/block4d_activation/Sigmoid:0: 3b817ec6
StatefulPartitionedCall/efficientdet-d5/block4d_activation/mul_1:0: 384aeec9
StatefulPartitionedCall/efficientdet-d5/block4d_se_squeeze/Mean:0: 3847a506
StatefulPartitionedCall/efficientdet-d5/block4d_se_squeeze/Mean_Squeeze__4997:0: 3847a506
StatefulPartitionedCall/efficientdet-d5/block4d_se_reduce/BiasAdd__813:0: 3847a506
StatefulPartitionedCall/efficientdet-d5/block4d_se_reduce/BiasAdd:0: 38438b54
StatefulPartitionedCall/efficientdet-d5/block4d_se_reduce/Sigmoid:0: 3b814479
StatefulPartitionedCall/efficientdet-d5/block4d_se_reduce/mul_1:0: 37c2f729
StatefulPartitionedCall/efficientdet-d5/block4d_se_expand/BiasAdd:0: 360bfc54
StatefulPartitionedCall/efficientdet-d5/block4d_se_expand/Sigmoid:0: 3b810e2e
StatefulPartitionedCall/efficientdet-d5/block4d_se_excite/mul:0: 37caf53c
StatefulPartitionedCall/efficientdet-d5/block4d_project_bn/FusedBatchNormV3:0: 393e56a6
StatefulPartitionedCall/efficientdet-d5/block4d_add/add:0: 3a1bafb4
StatefulPartitionedCall/efficientdet-d5/block4e_expand_bn/FusedBatchNormV3:0: 391c821a
StatefulPartitionedCall/efficientdet-d5/block4e_expand_activation/Sigmoid:0: 3b819afb
StatefulPartitionedCall/efficientdet-d5/block4e_expand_activation/mul_1:0: 388f9df6
StatefulPartitionedCall/efficientdet-d5/block4e_bn/FusedBatchNormV3:0: 388d0c2d
StatefulPartitionedCall/efficientdet-d5/block4e_activation/Sigmoid:0: 3b8181e2
StatefulPartitionedCall/efficientdet-d5/block4e_activation/mul_1:0: 381ba667
StatefulPartitionedCall/efficientdet-d5/block4e_se_squeeze/Mean:0: 3826f6bb
StatefulPartitionedCall/efficientdet-d5/block4e_se_squeeze/Mean_Squeeze__4955:0: 3826f6bb
StatefulPartitionedCall/efficientdet-d5/block4e_se_reduce/BiasAdd__857:0: 3826f6bb
StatefulPartitionedCall/efficientdet-d5/block4e_se_reduce/BiasAdd:0: 38a5f1e6
StatefulPartitionedCall/efficientdet-d5/block4e_se_reduce/Sigmoid:0: 3b816f38
StatefulPartitionedCall/efficientdet-d5/block4e_se_reduce/mul_1:0: 382f776e
StatefulPartitionedCall/efficientdet-d5/block4e_se_expand/BiasAdd:0: 364dce4a
StatefulPartitionedCall/efficientdet-d5/block4e_se_expand/Sigmoid:0: 3b811024
StatefulPartitionedCall/efficientdet-d5/block4e_se_excite/mul:0: 379c10b3
StatefulPartitionedCall/efficientdet-d5/block4e_project_bn/FusedBatchNormV3:0: 3949a8ec
StatefulPartitionedCall/efficientdet-d5/block4e_add/add:0: 3a541328
StatefulPartitionedCall/efficientdet-d5/block4f_expand_bn/FusedBatchNormV3:0: 391f9159
StatefulPartitionedCall/efficientdet-d5/block4f_expand_activation/Sigmoid:0: 3bca986f
StatefulPartitionedCall/efficientdet-d5/block4f_expand_activation/mul_1:0: 389e6153
StatefulPartitionedCall/efficientdet-d5/block4f_bn/FusedBatchNormV3:0: 388df08e
StatefulPartitionedCall/efficientdet-d5/block4f_activation/Sigmoid:0: 3b818a47
StatefulPartitionedCall/efficientdet-d5/block4f_activation/mul_1:0: 37ff6645
StatefulPartitionedCall/efficientdet-d5/block4f_se_squeeze/Mean:0: 385749b2
StatefulPartitionedCall/efficientdet-d5/block4f_se_squeeze/Mean_Squeeze__4977:0: 385749b2
StatefulPartitionedCall/efficientdet-d5/block4f_se_reduce/BiasAdd__901:0: 385749b2
StatefulPartitionedCall/efficientdet-d5/block4f_se_reduce/BiasAdd:0: 380b6a09
StatefulPartitionedCall/efficientdet-d5/block4f_se_reduce/Sigmoid:0: 3b813e04
StatefulPartitionedCall/efficientdet-d5/block4f_se_reduce/mul_1:0: 380057c9
StatefulPartitionedCall/efficientdet-d5/block4f_se_expand/BiasAdd:0: 36268be2
StatefulPartitionedCall/efficientdet-d5/block4f_se_expand/Sigmoid:0: 3b810de8
StatefulPartitionedCall/efficientdet-d5/block4f_se_excite/mul:0: 377f69b0
StatefulPartitionedCall/efficientdet-d5/block4f_project_bn/FusedBatchNormV3:0: 3910a5f9
StatefulPartitionedCall/efficientdet-d5/block4f_add/add:0: 3a774e43
StatefulPartitionedCall/efficientdet-d5/block4g_expand_bn/FusedBatchNormV3:0: 392be6ff
StatefulPartitionedCall/efficientdet-d5/block4g_expand_activation/Sigmoid:0: 3b827319
StatefulPartitionedCall/efficientdet-d5/block4g_expand_activation/mul_1:0: 38bab666
StatefulPartitionedCall/efficientdet-d5/block4g_bn/FusedBatchNormV3:0: 38b67f32
StatefulPartitionedCall/efficientdet-d5/block4g_activation/Sigmoid:0: 3b818ecf
StatefulPartitionedCall/efficientdet-d5/block4g_activation/mul_1:0: 381ac61c
StatefulPartitionedCall/efficientdet-d5/block4g_se_squeeze/Mean:0: 3830fbab
StatefulPartitionedCall/efficientdet-d5/block4g_se_squeeze/Mean_Squeeze__5003:0: 3830fbab
StatefulPartitionedCall/efficientdet-d5/block4g_se_reduce/BiasAdd__945:0: 3830fbab
StatefulPartitionedCall/efficientdet-d5/block4g_se_reduce/BiasAdd:0: 38361058
StatefulPartitionedCall/efficientdet-d5/block4g_se_reduce/Sigmoid:0: 3b814cf1
StatefulPartitionedCall/efficientdet-d5/block4g_se_reduce/mul_1:0: 37fff469
StatefulPartitionedCall/efficientdet-d5/block4g_se_expand/BiasAdd:0: 3636464d
StatefulPartitionedCall/efficientdet-d5/block4g_se_expand/Sigmoid:0: 3b810fc6
StatefulPartitionedCall/efficientdet-d5/block4g_se_excite/mul:0: 379ac7d8
StatefulPartitionedCall/efficientdet-d5/block4g_project_bn/FusedBatchNormV3:0: 39645161
StatefulPartitionedCall/efficientdet-d5/block4g_add/add:0: 3aa50850
StatefulPartitionedCall/efficientdet-d5/block5a_expand_bn/FusedBatchNormV3:0: 3998138e
StatefulPartitionedCall/efficientdet-d5/block5a_expand_activation/Sigmoid:0: 3b82b885
StatefulPartitionedCall/efficientdet-d5/block5a_expand_activation/mul_1:0: 392975ac
StatefulPartitionedCall/efficientdet-d5/block5a_bn/FusedBatchNormV3:0: 3919bb81
StatefulPartitionedCall/efficientdet-d5/block5a_activation/Sigmoid:0: 3b81b166
StatefulPartitionedCall/efficientdet-d5/block5a_activation/mul_1:0: 3898fa3e
StatefulPartitionedCall/efficientdet-d5/block5a_se_squeeze/Mean:0: 3884004a
StatefulPartitionedCall/efficientdet-d5/block5a_se_squeeze/Mean_Squeeze__4969:0: 3884004a
StatefulPartitionedCall/efficientdet-d5/block5a_se_reduce/BiasAdd__989:0: 3884004a
StatefulPartitionedCall/efficientdet-d5/block5a_se_reduce/BiasAdd:0: 38df5ed7
StatefulPartitionedCall/efficientdet-d5/block5a_se_reduce/Sigmoid:0: 3b81a2b1
StatefulPartitionedCall/efficientdet-d5/block5a_se_reduce/mul_1:0: 388b09d6
StatefulPartitionedCall/efficientdet-d5/block5a_se_expand/BiasAdd:0: 3711149b
StatefulPartitionedCall/efficientdet-d5/block5a_se_expand/Sigmoid:0: 3b8119a8
StatefulPartitionedCall/efficientdet-d5/block5a_se_excite/mul:0: 3818f42c
StatefulPartitionedCall/efficientdet-d5/block5a_project_bn/FusedBatchNormV3:0: 39c433ec
StatefulPartitionedCall/efficientdet-d5/block5b_expand_conv/Conv2D:0: 388c56b7
StatefulPartitionedCall/efficientdet-d5/block5b_expand_bn/FusedBatchNormV3:0: 3968bc03
StatefulPartitionedCall/efficientdet-d5/block5b_expand_activation/Sigmoid:0: 3b826c50
StatefulPartitionedCall/efficientdet-d5/block5b_expand_activation/mul_1:0: 38e8d0c1
StatefulPartitionedCall/efficientdet-d5/block5b_bn/FusedBatchNormV3:0: 391f4b28
StatefulPartitionedCall/efficientdet-d5/block5b_activation/Sigmoid:0: 3b818aee
StatefulPartitionedCall/efficientdet-d5/block5b_activation/mul_1:0: 38a82b95
StatefulPartitionedCall/efficientdet-d5/block5b_se_squeeze/Mean:0: 389e62ab
StatefulPartitionedCall/efficientdet-d5/block5b_se_squeeze/Mean_Squeeze__4967:0: 389e62ab
StatefulPartitionedCall/efficientdet-d5/block5b_se_reduce/BiasAdd__1033:0: 389e62ab
StatefulPartitionedCall/efficientdet-d5/block5b_se_reduce/BiasAdd:0: 38d605c6
StatefulPartitionedCall/efficientdet-d5/block5b_se_reduce/Sigmoid:0: 3b817c0b
StatefulPartitionedCall/efficientdet-d5/block5b_se_reduce/mul_1:0: 389c732f
StatefulPartitionedCall/efficientdet-d5/block5b_se_expand/BiasAdd:0: 3640b8f5
StatefulPartitionedCall/efficientdet-d5/block5b_se_expand/Sigmoid:0: 3b81113d
StatefulPartitionedCall/efficientdet-d5/block5b_se_excite/mul:0: 38282ec5
StatefulPartitionedCall/efficientdet-d5/block5b_project_bn/FusedBatchNormV3:0: 39aae421
StatefulPartitionedCall/efficientdet-d5/block5b_add/add:0: 3a2c6501
StatefulPartitionedCall/efficientdet-d5/block5c_expand_bn/FusedBatchNormV3:0: 395e5d5d
StatefulPartitionedCall/efficientdet-d5/block5c_expand_activation/Sigmoid:0: 3b824ac4
StatefulPartitionedCall/efficientdet-d5/block5c_expand_activation/mul_1:0: 38e15d36
StatefulPartitionedCall/efficientdet-d5/block5c_bn/FusedBatchNormV3:0: 3905aa82
StatefulPartitionedCall/efficientdet-d5/block5c_activation/Sigmoid:0: 3b81886a
StatefulPartitionedCall/efficientdet-d5/block5c_activation/mul_1:0: 389b86f7
StatefulPartitionedCall/efficientdet-d5/block5c_se_squeeze/Mean:0: 38900e48
StatefulPartitionedCall/efficientdet-d5/block5c_se_squeeze/Mean_Squeeze__4999:0: 38900e48
StatefulPartitionedCall/efficientdet-d5/block5c_se_reduce/BiasAdd__1077:0: 38900e48
StatefulPartitionedCall/efficientdet-d5/block5c_se_reduce/BiasAdd:0: 38c3ee8e
StatefulPartitionedCall/efficientdet-d5/block5c_se_reduce/Sigmoid:0: 3b816348
StatefulPartitionedCall/efficientdet-d5/block5c_se_reduce/mul_1:0: 388a5bf7
StatefulPartitionedCall/efficientdet-d5/block5c_se_expand/BiasAdd:0: 367debf1
StatefulPartitionedCall/efficientdet-d5/block5c_se_expand/Sigmoid:0: 3b811538
StatefulPartitionedCall/efficientdet-d5/block5c_se_excite/mul:0: 381b8cae
StatefulPartitionedCall/efficientdet-d5/block5c_project_bn/FusedBatchNormV3:0: 399a9baa
StatefulPartitionedCall/efficientdet-d5/block5c_add/add:0: 3a6a3e2d
StatefulPartitionedCall/efficientdet-d5/block5d_expand_bn/FusedBatchNormV3:0: 3983c4aa
StatefulPartitionedCall/efficientdet-d5/block5d_expand_activation/Sigmoid:0: 3b82a70a
StatefulPartitionedCall/efficientdet-d5/block5d_expand_activation/mul_1:0: 38ef65e3
StatefulPartitionedCall/efficientdet-d5/block5d_bn/FusedBatchNormV3:0: 39139228
StatefulPartitionedCall/efficientdet-d5/block5d_activation/Sigmoid:0: 3b817869
StatefulPartitionedCall/efficientdet-d5/block5d_activation/mul_1:0: 387f34de
StatefulPartitionedCall/efficientdet-d5/block5d_se_squeeze/Mean:0: 3888ad4a
StatefulPartitionedCall/efficientdet-d5/block5d_se_squeeze/Mean_Squeeze__4995:0: 3888ad4a
StatefulPartitionedCall/efficientdet-d5/block5d_se_reduce/BiasAdd__1121:0: 3888ad4a
StatefulPartitionedCall/efficientdet-d5/block5d_se_reduce/BiasAdd:0: 38db69c1
StatefulPartitionedCall/efficientdet-d5/block5d_se_reduce/Sigmoid:0: 3b814ba3
StatefulPartitionedCall/efficientdet-d5/block5d_se_reduce/mul_1:0: 3856a889
StatefulPartitionedCall/efficientdet-d5/block5d_se_expand/BiasAdd:0: 3667589a
StatefulPartitionedCall/efficientdet-d5/block5d_se_expand/Sigmoid:0: 3b81152b
StatefulPartitionedCall/efficientdet-d5/block5d_se_excite/mul:0: 380f33bd
StatefulPartitionedCall/efficientdet-d5/block5d_project_bn/FusedBatchNormV3:0: 398cd2ef
StatefulPartitionedCall/efficientdet-d5/block5d_add/add:0: 3a9d272a
StatefulPartitionedCall/efficientdet-d5/block5e_expand_bn/FusedBatchNormV3:0: 399313bb
StatefulPartitionedCall/efficientdet-d5/block5e_expand_activation/Sigmoid:0: 3b8256ec
StatefulPartitionedCall/efficientdet-d5/block5e_expand_activation/mul_1:0: 390ae2f2
StatefulPartitionedCall/efficientdet-d5/block5e_bn/FusedBatchNormV3:0: 38dd4ed8
StatefulPartitionedCall/efficientdet-d5/block5e_activation/Sigmoid:0: 3b817b45
StatefulPartitionedCall/efficientdet-d5/block5e_activation/mul_1:0: 385dc249
StatefulPartitionedCall/efficientdet-d5/block5e_se_squeeze/Mean:0: 3841dad4
StatefulPartitionedCall/efficientdet-d5/block5e_se_squeeze/Mean_Squeeze__4961:0: 3841dad4
StatefulPartitionedCall/efficientdet-d5/block5e_se_reduce/BiasAdd__1165:0: 3841dad4
StatefulPartitionedCall/efficientdet-d5/block5e_se_reduce/BiasAdd:0: 38e07c62
StatefulPartitionedCall/efficientdet-d5/block5e_se_reduce/Sigmoid:0: 3b816801
StatefulPartitionedCall/efficientdet-d5/block5e_se_reduce/mul_1:0: 387d90f9
StatefulPartitionedCall/efficientdet-d5/block5e_se_expand/BiasAdd:0: 368386ce
StatefulPartitionedCall/efficientdet-d5/block5e_se_expand/Sigmoid:0: 3b8114ca
StatefulPartitionedCall/efficientdet-d5/block5e_se_excite/mul:0: 37b83a5c
StatefulPartitionedCall/efficientdet-d5/block5e_project_bn/FusedBatchNormV3:0: 399124a7
StatefulPartitionedCall/efficientdet-d5/block5e_add/add:0: 3aac889e
StatefulPartitionedCall/efficientdet-d5/block5f_expand_bn/FusedBatchNormV3:0: 398981d6
StatefulPartitionedCall/efficientdet-d5/block5f_expand_activation/Sigmoid:0: 3b8488cd
StatefulPartitionedCall/efficientdet-d5/block5f_expand_activation/mul_1:0: 39072c87
StatefulPartitionedCall/efficientdet-d5/block5f_bn/FusedBatchNormV3:0: 38b28363
StatefulPartitionedCall/efficientdet-d5/block5f_activation/Sigmoid:0: 3b817e99
StatefulPartitionedCall/efficientdet-d5/block5f_activation/mul_1:0: 3831c806
StatefulPartitionedCall/efficientdet-d5/block5f_se_squeeze/Mean:0: 38203e59
StatefulPartitionedCall/efficientdet-d5/block5f_se_squeeze/Mean_Squeeze__4989:0: 38203e59
StatefulPartitionedCall/efficientdet-d5/block5f_se_reduce/BiasAdd__1209:0: 38203e59
StatefulPartitionedCall/efficientdet-d5/block5f_se_reduce/BiasAdd:0: 38a3dcd2
StatefulPartitionedCall/efficientdet-d5/block5f_se_reduce/Sigmoid:0: 3b813333
StatefulPartitionedCall/efficientdet-d5/block5f_se_reduce/mul_1:0: 3826ad27
StatefulPartitionedCall/efficientdet-d5/block5f_se_expand/BiasAdd:0: 36758a82
StatefulPartitionedCall/efficientdet-d5/block5f_se_expand/Sigmoid:0: 3b81165c
StatefulPartitionedCall/efficientdet-d5/block5f_se_excite/mul:0: 37abe0bf
StatefulPartitionedCall/efficientdet-d5/block5f_project_bn/FusedBatchNormV3:0: 390a2cee
StatefulPartitionedCall/efficientdet-d5/block5f_add/add:0: 3ac41d09
StatefulPartitionedCall/efficientdet-d5/block5g_expand_bn/FusedBatchNormV3:0: 39b58984
StatefulPartitionedCall/efficientdet-d5/block5g_expand_activation/Sigmoid:0: 3b832996
StatefulPartitionedCall/efficientdet-d5/block5g_expand_activation/mul_1:0: 39204ef4
StatefulPartitionedCall/efficientdet-d5/block5g_bn/FusedBatchNormV3:0: 38df2835
StatefulPartitionedCall/efficientdet-d5/block5g_activation/Sigmoid:0: 3b817307
StatefulPartitionedCall/efficientdet-d5/block5g_activation/mul_1:0: 3860e9de
StatefulPartitionedCall/efficientdet-d5/block5g_se_squeeze/Mean:0: 384e8992
StatefulPartitionedCall/efficientdet-d5/block5g_se_squeeze/Mean_Squeeze__5019:0: 384e8992
StatefulPartitionedCall/efficientdet-d5/block5g_se_reduce/BiasAdd__1253:0: 384e8992
StatefulPartitionedCall/efficientdet-d5/block5g_se_reduce/BiasAdd:0: 38785d8f
StatefulPartitionedCall/efficientdet-d5/block5g_se_reduce/Sigmoid:0: 3b814384
StatefulPartitionedCall/efficientdet-d5/block5g_se_reduce/mul_1:0: 37f7e60c
StatefulPartitionedCall/efficientdet-d5/block5g_se_expand/BiasAdd:0: 36a9c957
StatefulPartitionedCall/efficientdet-d5/block5g_se_expand/Sigmoid:0: 3b811a24
StatefulPartitionedCall/efficientdet-d5/block5g_se_excite/mul:0: 37e10189
StatefulPartitionedCall/efficientdet-d5/block5g_project_bn/FusedBatchNormV3:0: 387cc48d
StatefulPartitionedCall/efficientdet-d5/block5g_add/add:0: 3ac59312
StatefulPartitionedCall/efficientdet-d5/fpn_cell_0_fnode4resample_0_1_bn/FusedBatchNormV3:0: 38d31c87
StatefulPartitionedCall/efficientdet-d5/fpn_cell_0_fnode2resample_0_1_bn/FusedBatchNormV3:0: 3905d80d
StatefulPartitionedCall/efficientdet-d5/block6a_expand_bn/FusedBatchNormV3:0: 398c2035
(Unnamed Layer* 547) [Shuffle]_output: 39eaa780
StatefulPartitionedCall/efficientdet-d5/fusion_fpn_cell_0_fnode4/truediv:0: 36bff331
(Unnamed Layer* 550) [Shuffle]_output: 3b3e4f2e
StatefulPartitionedCall/efficientdet-d5/fusion_fpn_cell_0_fnode2/truediv:0: 3845652a
StatefulPartitionedCall/efficientdet-d5/block6a_expand_activation/Sigmoid:0: 3b8230b3
StatefulPartitionedCall/efficientdet-d5/block6a_expand_activation/mul_1:0: 39082e74
StatefulPartitionedCall/efficientdet-d5/block6a_bn/FusedBatchNormV3:0: 38e4bad8
StatefulPartitionedCall/efficientdet-d5/block6a_activation/Sigmoid:0: 3b8170ad
StatefulPartitionedCall/efficientdet-d5/block6a_activation/mul_1:0: 385c0777
StatefulPartitionedCall/efficientdet-d5/block6a_se_squeeze/Mean:0: 38563ad7
StatefulPartitionedCall/efficientdet-d5/block6a_se_squeeze/Mean_Squeeze__5027:0: 38563ad7
StatefulPartitionedCall/efficientdet-d5/block6a_se_reduce/BiasAdd__1321:0: 38563ad7
StatefulPartitionedCall/efficientdet-d5/block6a_se_reduce/BiasAdd:0: 38b75f3f
StatefulPartitionedCall/efficientdet-d5/block6a_se_reduce/Sigmoid:0: 3b813f4a
StatefulPartitionedCall/efficientdet-d5/block6a_se_reduce/mul_1:0: 3836d6d5
StatefulPartitionedCall/efficientdet-d5/block6a_se_expand/BiasAdd:0: 3624925e
StatefulPartitionedCall/efficientdet-d5/block6a_se_expand/Sigmoid:0: 3b81112e
StatefulPartitionedCall/efficientdet-d5/block6a_se_excite/mul:0: 37dc63f5
StatefulPartitionedCall/efficientdet-d5/block6a_project_bn/FusedBatchNormV3:0: 3986e7f0
StatefulPartitionedCall/efficientdet-d5/block6b_expand_conv/Conv2D:0: 3805bcba
StatefulPartitionedCall/efficientdet-d5/block6b_expand_bn/FusedBatchNormV3:0: 38dc864f
StatefulPartitionedCall/efficientdet-d5/block6b_expand_activation/Sigmoid:0: 3b81771a
StatefulPartitionedCall/efficientdet-d5/block6b_expand_activation/mul_1:0: 3856e015
StatefulPartitionedCall/efficientdet-d5/block6b_bn/FusedBatchNormV3:0: 38ac4495
StatefulPartitionedCall/efficientdet-d5/block6b_activation/Sigmoid:0: 3b818250
StatefulPartitionedCall/efficientdet-d5/block6b_activation/mul_1:0: 382dde84
StatefulPartitionedCall/efficientdet-d5/block6b_se_squeeze/Mean:0: 382c6d99
StatefulPartitionedCall/efficientdet-d5/block6b_se_squeeze/Mean_Squeeze__4987:0: 382c6d99
StatefulPartitionedCall/efficientdet-d5/block6b_se_reduce/BiasAdd__1365:0: 382c6d99
StatefulPartitionedCall/efficientdet-d5/block6b_se_reduce/BiasAdd:0: 3835b808
StatefulPartitionedCall/efficientdet-d5/block6b_se_reduce/Sigmoid:0: 3b81346e
StatefulPartitionedCall/efficientdet-d5/block6b_se_reduce/mul_1:0: 37b637fc
StatefulPartitionedCall/efficientdet-d5/block6b_se_expand/BiasAdd:0: 35eadc05
StatefulPartitionedCall/efficientdet-d5/block6b_se_expand/Sigmoid:0: 3b810dbf
StatefulPartitionedCall/efficientdet-d5/block6b_se_excite/mul:0: 37adc9fd
StatefulPartitionedCall/efficientdet-d5/block6b_project_bn/FusedBatchNormV3:0: 39928247
StatefulPartitionedCall/efficientdet-d5/block6b_add/add:0: 3a11b8a2
StatefulPartitionedCall/efficientdet-d5/block6c_expand_bn/FusedBatchNormV3:0: 38e15c2d
StatefulPartitionedCall/efficientdet-d5/block6c_expand_activation/Sigmoid:0: 3b818a2c
StatefulPartitionedCall/efficientdet-d5/block6c_expand_activation/mul_1:0: 386027fe
StatefulPartitionedCall/efficientdet-d5/block6c_bn/FusedBatchNormV3:0: 38c2aa76
StatefulPartitionedCall/efficientdet-d5/block6c_activation/Sigmoid:0: 3b81818e
StatefulPartitionedCall/efficientdet-d5/block6c_activation/mul_1:0: 38418ce8
StatefulPartitionedCall/efficientdet-d5/block6c_se_squeeze/Mean:0: 382cf6be
StatefulPartitionedCall/efficientdet-d5/block6c_se_squeeze/Mean_Squeeze__4991:0: 382cf6be
StatefulPartitionedCall/efficientdet-d5/block6c_se_reduce/BiasAdd__1409:0: 382cf6be
StatefulPartitionedCall/efficientdet-d5/block6c_se_reduce/BiasAdd:0: 383fb737
StatefulPartitionedCall/efficientdet-d5/block6c_se_reduce/Sigmoid:0: 3b8149e6
StatefulPartitionedCall/efficientdet-d5/block6c_se_reduce/mul_1:0: 37bf28cd
StatefulPartitionedCall/efficientdet-d5/block6c_se_expand/BiasAdd:0: 35ec2af1
StatefulPartitionedCall/efficientdet-d5/block6c_se_expand/Sigmoid:0: 3b810e32
StatefulPartitionedCall/efficientdet-d5/block6c_se_excite/mul:0: 37c192dc
StatefulPartitionedCall/efficientdet-d5/block6c_project_bn/FusedBatchNormV3:0: 39963813
StatefulPartitionedCall/efficientdet-d5/block6c_add/add:0: 3a545ba0
StatefulPartitionedCall/efficientdet-d5/block6d_expand_bn/FusedBatchNormV3:0: 390a7c65
StatefulPartitionedCall/efficientdet-d5/block6d_expand_activation/Sigmoid:0: 3b818355
StatefulPartitionedCall/efficientdet-d5/block6d_expand_activation/mul_1:0: 388ad65f
StatefulPartitionedCall/efficientdet-d5/block6d_bn/FusedBatchNormV3:0: 38b79a3b
StatefulPartitionedCall/efficientdet-d5/block6d_activation/Sigmoid:0: 3b817d28
StatefulPartitionedCall/efficientdet-d5/block6d_activation/mul_1:0: 38306c1d
StatefulPartitionedCall/efficientdet-d5/block6d_se_squeeze/Mean:0: 38313d52
StatefulPartitionedCall/efficientdet-d5/block6d_se_squeeze/Mean_Squeeze__4971:0: 38313d52
StatefulPartitionedCall/efficientdet-d5/block6d_se_reduce/BiasAdd__1453:0: 38313d52
StatefulPartitionedCall/efficientdet-d5/block6d_se_reduce/BiasAdd:0: 38840f6d
StatefulPartitionedCall/efficientdet-d5/block6d_se_reduce/Sigmoid:0: 3b814370
StatefulPartitionedCall/efficientdet-d5/block6d_se_reduce/mul_1:0: 38038847
StatefulPartitionedCall/efficientdet-d5/block6d_se_expand/BiasAdd:0: 360543f5
StatefulPartitionedCall/efficientdet-d5/block6d_se_expand/Sigmoid:0: 3b810e2d
StatefulPartitionedCall/efficientdet-d5/block6d_se_excite/mul:0: 37b06d4e
StatefulPartitionedCall/efficientdet-d5/block6d_project_bn/FusedBatchNormV3:0: 3981b9b0
StatefulPartitionedCall/efficientdet-d5/block6d_add/add:0: 3a83db30
StatefulPartitionedCall/efficientdet-d5/block6e_expand_bn/FusedBatchNormV3:0: 392757e1
StatefulPartitionedCall/efficientdet-d5/block6e_expand_activation/Sigmoid:0: 3b819d95
StatefulPartitionedCall/efficientdet-d5/block6e_expand_activation/mul_1:0: 389e2e90
StatefulPartitionedCall/efficientdet-d5/block6e_bn/FusedBatchNormV3:0: 38bef732
StatefulPartitionedCall/efficientdet-d5/block6e_activation/Sigmoid:0: 3b817bfd
StatefulPartitionedCall/efficientdet-d5/block6e_activation/mul_1:0: 3840154d
StatefulPartitionedCall/efficientdet-d5/block6e_se_squeeze/Mean:0: 381ace1e
StatefulPartitionedCall/efficientdet-d5/block6e_se_squeeze/Mean_Squeeze__4981:0: 381ace1e
StatefulPartitionedCall/efficientdet-d5/block6e_se_reduce/BiasAdd__1497:0: 381ace1e
StatefulPartitionedCall/efficientdet-d5/block6e_se_reduce/BiasAdd:0: 384885b8
StatefulPartitionedCall/efficientdet-d5/block6e_se_reduce/Sigmoid:0: 3b8142a7
StatefulPartitionedCall/efficientdet-d5/block6e_se_reduce/mul_1:0: 37c7e9eb
StatefulPartitionedCall/efficientdet-d5/block6e_se_expand/BiasAdd:0: 35d9dd78
StatefulPartitionedCall/efficientdet-d5/block6e_se_expand/Sigmoid:0: 3b810d8a
StatefulPartitionedCall/efficientdet-d5/block6e_se_excite/mul:0: 37c01834
StatefulPartitionedCall/efficientdet-d5/block6e_project_bn/FusedBatchNormV3:0: 39882794
StatefulPartitionedCall/efficientdet-d5/block6e_add/add:0: 3a9b8b73
StatefulPartitionedCall/efficientdet-d5/block6f_expand_bn/FusedBatchNormV3:0: 39588a10
StatefulPartitionedCall/efficientdet-d5/block6f_expand_activation/Sigmoid:0: 3b81b7cf
StatefulPartitionedCall/efficientdet-d5/block6f_expand_activation/mul_1:0: 38d5b6e8
StatefulPartitionedCall/efficientdet-d5/block6f_bn/FusedBatchNormV3:0: 38d1ab55
StatefulPartitionedCall/efficientdet-d5/block6f_activation/Sigmoid:0: 3b8181a9
StatefulPartitionedCall/efficientdet-d5/block6f_activation/mul_1:0: 3852f095
StatefulPartitionedCall/efficientdet-d5/block6f_se_squeeze/Mean:0: 381428a9
StatefulPartitionedCall/efficientdet-d5/block6f_se_squeeze/Mean_Squeeze__4973:0: 381428a9
StatefulPartitionedCall/efficientdet-d5/block6f_se_reduce/BiasAdd__1541:0: 381428a9
StatefulPartitionedCall/efficientdet-d5/block6f_se_reduce/BiasAdd:0: 382a8fef
StatefulPartitionedCall/efficientdet-d5/block6f_se_reduce/Sigmoid:0: 3b813ef3
StatefulPartitionedCall/efficientdet-d5/block6f_se_reduce/mul_1:0: 37aa1f35
StatefulPartitionedCall/efficientdet-d5/block6f_se_expand/BiasAdd:0: 35f79d99
StatefulPartitionedCall/efficientdet-d5/block6f_se_expand/Sigmoid:0: 3b810ee4
StatefulPartitionedCall/efficientdet-d5/block6f_se_excite/mul:0: 37d2f873
StatefulPartitionedCall/efficientdet-d5/block6f_project_bn/FusedBatchNormV3:0: 395f24a8
StatefulPartitionedCall/efficientdet-d5/block6f_add/add:0: 3ab43f29
StatefulPartitionedCall/efficientdet-d5/block6g_expand_bn/FusedBatchNormV3:0: 395ed5a0
StatefulPartitionedCall/efficientdet-d5/block6g_expand_activation/Sigmoid:0: 3b826a6f
StatefulPartitionedCall/efficientdet-d5/block6g_expand_activation/mul_1:0: 38dc3494
StatefulPartitionedCall/efficientdet-d5/block6g_bn/FusedBatchNormV3:0: 38b62f8f
StatefulPartitionedCall/efficientdet-d5/block6g_activation/Sigmoid:0: 3b8186ff
StatefulPartitionedCall/efficientdet-d5/block6g_activation/mul_1:0: 38373a41
StatefulPartitionedCall/efficientdet-d5/block6g_se_squeeze/Mean:0: 3817616e
StatefulPartitionedCall/efficientdet-d5/block6g_se_squeeze/Mean_Squeeze__4957:0: 3817616e
StatefulPartitionedCall/efficientdet-d5/block6g_se_reduce/BiasAdd__1585:0: 3817616e
StatefulPartitionedCall/efficientdet-d5/block6g_se_reduce/BiasAdd:0: 3868ae3b
StatefulPartitionedCall/efficientdet-d5/block6g_se_reduce/Sigmoid:0: 3b813e7f
StatefulPartitionedCall/efficientdet-d5/block6g_se_reduce/mul_1:0: 37e9643f
StatefulPartitionedCall/efficientdet-d5/block6g_se_expand/BiasAdd:0: 36174b67
StatefulPartitionedCall/efficientdet-d5/block6g_se_expand/Sigmoid:0: 3b810fef
StatefulPartitionedCall/efficientdet-d5/block6g_se_excite/mul:0: 37b740f7
StatefulPartitionedCall/efficientdet-d5/block6g_project_bn/FusedBatchNormV3:0: 395b763a
StatefulPartitionedCall/efficientdet-d5/block6g_add/add:0: 3acd7065
StatefulPartitionedCall/efficientdet-d5/block6h_expand_bn/FusedBatchNormV3:0: 39840486
StatefulPartitionedCall/efficientdet-d5/block6h_expand_activation/Sigmoid:0: 3b82059e
StatefulPartitionedCall/efficientdet-d5/block6h_expand_activation/mul_1:0: 38f4f94d
StatefulPartitionedCall/efficientdet-d5/block6h_bn/FusedBatchNormV3:0: 38c8ec18
StatefulPartitionedCall/efficientdet-d5/block6h_activation/Sigmoid:0: 3b817d6a
StatefulPartitionedCall/efficientdet-d5/block6h_activation/mul_1:0: 3842e28d
StatefulPartitionedCall/efficientdet-d5/block6h_se_squeeze/Mean:0: 3828b32e
StatefulPartitionedCall/efficientdet-d5/block6h_se_squeeze/Mean_Squeeze__4979:0: 3828b32e
StatefulPartitionedCall/efficientdet-d5/block6h_se_reduce/BiasAdd__1629:0: 3828b32e
StatefulPartitionedCall/efficientdet-d5/block6h_se_reduce/BiasAdd:0: 38784bcd
StatefulPartitionedCall/efficientdet-d5/block6h_se_reduce/Sigmoid:0: 3b813a4e
StatefulPartitionedCall/efficientdet-d5/block6h_se_reduce/mul_1:0: 3809c663
StatefulPartitionedCall/efficientdet-d5/block6h_se_expand/BiasAdd:0: 35bf17e5
StatefulPartitionedCall/efficientdet-d5/block6h_se_expand/Sigmoid:0: 3b810ff9
StatefulPartitionedCall/efficientdet-d5/block6h_se_excite/mul:0: 38053049
StatefulPartitionedCall/efficientdet-d5/block6h_project_bn/FusedBatchNormV3:0: 3925a16b
StatefulPartitionedCall/efficientdet-d5/block6h_add/add:0: 3adc8061
StatefulPartitionedCall/efficientdet-d5/block6i_expand_bn/FusedBatchNormV3:0: 3987b1c1
StatefulPartitionedCall/efficientdet-d5/block6i_expand_activation/Sigmoid:0: 3b82430d
StatefulPartitionedCall/efficientdet-d5/block6i_expand_activation/mul_1:0: 390553e7
StatefulPartitionedCall/efficientdet-d5/block6i_bn/FusedBatchNormV3:0: 38dbc2ed
StatefulPartitionedCall/efficientdet-d5/block6i_activation/Sigmoid:0: 3b81793a
StatefulPartitionedCall/efficientdet-d5/block6i_activation/mul_1:0: 385dfc9c
StatefulPartitionedCall/efficientdet-d5/block6i_se_squeeze/Mean:0: 38512619
StatefulPartitionedCall/efficientdet-d5/block6i_se_squeeze/Mean_Squeeze__5017:0: 38512619
StatefulPartitionedCall/efficientdet-d5/block6i_se_reduce/BiasAdd__1673:0: 38512619
StatefulPartitionedCall/efficientdet-d5/block6i_se_reduce/BiasAdd:0: 380884b1
StatefulPartitionedCall/efficientdet-d5/block6i_se_reduce/Sigmoid:0: 3b813e2e
StatefulPartitionedCall/efficientdet-d5/block6i_se_reduce/mul_1:0: 3788cce9
StatefulPartitionedCall/efficientdet-d5/block6i_se_expand/BiasAdd:0: 35f6e8a1
StatefulPartitionedCall/efficientdet-d5/block6i_se_expand/Sigmoid:0: 3b811049
StatefulPartitionedCall/efficientdet-d5/block6i_se_excite/mul:0: 37de0248
StatefulPartitionedCall/efficientdet-d5/block6i_project_bn/FusedBatchNormV3:0: 391f515f
StatefulPartitionedCall/efficientdet-d5/block6i_add/add:0: 3af28d64
StatefulPartitionedCall/efficientdet-d5/block7a_expand_bn/FusedBatchNormV3:0: 39e4b7f2
StatefulPartitionedCall/efficientdet-d5/block7a_expand_activation/Sigmoid:0: 3b83b80e
StatefulPartitionedCall/efficientdet-d5/block7a_expand_activation/mul_1:0: 39466fd6
StatefulPartitionedCall/efficientdet-d5/block7a_bn/FusedBatchNormV3:0: 39892342
StatefulPartitionedCall/efficientdet-d5/block7a_activation/Sigmoid:0: 3b8273ba
StatefulPartitionedCall/efficientdet-d5/block7a_activation/mul_1:0: 393d66ba
StatefulPartitionedCall/efficientdet-d5/block7a_se_squeeze/Mean:0: 38d72a08
StatefulPartitionedCall/efficientdet-d5/block7a_se_squeeze/Mean_Squeeze__5025:0: 38d72a08
StatefulPartitionedCall/efficientdet-d5/block7a_se_reduce/BiasAdd__1717:0: 38d72a08
StatefulPartitionedCall/efficientdet-d5/block7a_se_reduce/BiasAdd:0: 38ecc4b3
StatefulPartitionedCall/efficientdet-d5/block7a_se_reduce/Sigmoid:0: 3b81aa44
StatefulPartitionedCall/efficientdet-d5/block7a_se_reduce/mul_1:0: 386b1246
StatefulPartitionedCall/efficientdet-d5/block7a_se_expand/BiasAdd:0: 36dacf03
StatefulPartitionedCall/efficientdet-d5/block7a_se_expand/Sigmoid:0: 3b81185f
StatefulPartitionedCall/efficientdet-d5/block7a_se_excite/mul:0: 3874686d
StatefulPartitionedCall/efficientdet-d5/block7a_project_bn/FusedBatchNormV3:0: 3a160b57
StatefulPartitionedCall/efficientdet-d5/block7b_expand_conv/Conv2D:0: 38b3cb46
StatefulPartitionedCall/efficientdet-d5/block7b_expand_bn/FusedBatchNormV3:0: 394aeca8
StatefulPartitionedCall/efficientdet-d5/block7b_expand_activation/Sigmoid:0: 3b81920f
StatefulPartitionedCall/efficientdet-d5/block7b_expand_activation/mul_1:0: 38cca416
StatefulPartitionedCall/efficientdet-d5/block7b_bn/FusedBatchNormV3:0: 3957f75b
StatefulPartitionedCall/efficientdet-d5/block7b_activation/Sigmoid:0: 3b819fae
StatefulPartitionedCall/efficientdet-d5/block7b_activation/mul_1:0: 38ce7b23
StatefulPartitionedCall/efficientdet-d5/block7b_se_squeeze/Mean:0: 38f316f6
StatefulPartitionedCall/efficientdet-d5/block7b_se_squeeze/Mean_Squeeze__4965:0: 38f316f6
StatefulPartitionedCall/efficientdet-d5/block7b_se_reduce/BiasAdd__1761:0: 38f316f6
StatefulPartitionedCall/efficientdet-d5/block7b_se_reduce/BiasAdd:0: 38ec8bc9
StatefulPartitionedCall/efficientdet-d5/block7b_se_reduce/Sigmoid:0: 3b8196ac
StatefulPartitionedCall/efficientdet-d5/block7b_se_reduce/mul_1:0: 38720eb9
StatefulPartitionedCall/efficientdet-d5/block7b_se_expand/BiasAdd:0: 369ba918
StatefulPartitionedCall/efficientdet-d5/block7b_se_expand/Sigmoid:0: 3b811398
StatefulPartitionedCall/efficientdet-d5/block7b_se_excite/mul:0: 384e8362
StatefulPartitionedCall/efficientdet-d5/block7b_project_bn/FusedBatchNormV3:0: 3a1c273c
StatefulPartitionedCall/efficientdet-d5/block7b_add/add:0: 3a955569
StatefulPartitionedCall/efficientdet-d5/block7c_expand_bn/FusedBatchNormV3:0: 3a27a175
StatefulPartitionedCall/efficientdet-d5/block7c_expand_activation/Sigmoid:0: 3b871890
StatefulPartitionedCall/efficientdet-d5/block7c_expand_activation/mul_1:0: 39cf78bb
StatefulPartitionedCall/efficientdet-d5/block7c_bn/FusedBatchNormV3:0: 396ef85d
StatefulPartitionedCall/efficientdet-d5/block7c_activation/Sigmoid:0: 3b8173d1
StatefulPartitionedCall/efficientdet-d5/block7c_activation/mul_1:0: 38f28a08
StatefulPartitionedCall/efficientdet-d5/block7c_se_squeeze/Mean:0: 38b77a05
StatefulPartitionedCall/efficientdet-d5/block7c_se_squeeze/Mean_Squeeze__4975:0: 38b77a05
StatefulPartitionedCall/efficientdet-d5/block7c_se_reduce/BiasAdd__1805:0: 38b77a05
StatefulPartitionedCall/efficientdet-d5/block7c_se_reduce/BiasAdd:0: 385318ee
StatefulPartitionedCall/efficientdet-d5/block7c_se_reduce/Sigmoid:0: 3b815432
StatefulPartitionedCall/efficientdet-d5/block7c_se_reduce/mul_1:0: 37f64360
StatefulPartitionedCall/efficientdet-d5/block7c_se_expand/BiasAdd:0: 3798f7ca
StatefulPartitionedCall/efficientdet-d5/block7c_se_expand/Sigmoid:0: 3b8119e4
StatefulPartitionedCall/efficientdet-d5/block7c_se_excite/mul:0: 386d3a77
StatefulPartitionedCall/efficientdet-d5/block7c_project_bn/FusedBatchNormV3:0: 37bdcb68
StatefulPartitionedCall/efficientdet-d5/resample_p6_conv2d/BiasAdd:0: 37299fa3
StatefulPartitionedCall/efficientdet-d5/fpn_cell_0_fnode5resample_0_2_conv2d/BiasAdd:0: 36ff4bc3
StatefulPartitionedCall/efficientdet-d5/fpn_cell_0_fnode1resample_0_2_conv2d/BiasAdd:0: 36b6ea0c
StatefulPartitionedCall/efficientdet-d5/resample_p6_bn/FusedBatchNormV3:0: 3939c6ff
StatefulPartitionedCall/efficientdet-d5/fpn_cell_0_fnode5resample_0_2_bn/FusedBatchNormV3:0: 38c8edaf
StatefulPartitionedCall/efficientdet-d5/fpn_cell_0_fnode1resample_0_2_bn/FusedBatchNormV3:0: 38ceb7cf
StatefulPartitionedCall/efficientdet-d5/max_pooling2d/MaxPool:0: 3939c6ff
(Unnamed Layer* 798) [Shuffle]_output: 391017a9
StatefulPartitionedCall/efficientdet-d5/fusion_fpn_cell_0_fnode5/truediv:0: 35e05e22
(Unnamed Layer* 801) [Shuffle]_output: 3b26a2b2
StatefulPartitionedCall/efficientdet-d5/fusion_fpn_cell_0_fnode1/truediv:0: 3805791b
StatefulPartitionedCall/efficientdet-d5/max_pooling2d_1/MaxPool:0: 3939c6ff
(Unnamed Layer* 805) [Shuffle]_output: 35741e6a
StatefulPartitionedCall/efficientdet-d5/fusion_fpn_cell_0_fnode6/truediv:0: 32afba72
(Unnamed Layer* 808) [Shuffle]_output: 3b6e92ad
StatefulPartitionedCall/efficientdet-d5/fusion_fpn_cell_0_fnode0/truediv:0: 38abbc74
(Unnamed Layer* 811) [Shuffle]_output: 36a325a2
StatefulPartitionedCall/efficientdet-d5/fusion_fpn_cell_0_fnode7/truediv:0: 3455d9ec
Resize__1858:0: 397b90d1
(Unnamed Layer* 815) [Shuffle]_output: 3b8ac430
StatefulPartitionedCall/efficientdet-d5/fusion_fpn_cell_0_fnode0/truediv_1:0: 390743ad
StatefulPartitionedCall/efficientdet-d5/fusion_fpn_cell_0_fnode0/AddN_1:0: 397b5a83
StatefulPartitionedCall/efficientdet-d5/activation/Sigmoid:0: 3b81cf50
StatefulPartitionedCall/efficientdet-d5/activation/mul_1:0: 38bd1579
StatefulPartitionedCall/efficientdet-d5/fpn_cell_0_fnode0_op_after_combine_3_conv/separable_conv2d/depthwise:0: 37873d98
StatefulPartitionedCall/efficientdet-d5/fpn_cell_0_fnode0_op_after_combine_3_conv/BiasAdd:0: 367125f6
StatefulPartitionedCall/efficientdet-d5/fpn_cell_0_fnode0_op_after_combine_3_bn/FusedBatchNormV3:0: 3996957b
(Unnamed Layer* 824) [Shuffle]_output: 36b93699
StatefulPartitionedCall/efficientdet-d5/fusion_fpn_cell_0_fnode6/truediv_1:0: 345822fc
Resize__1879:0: 398f60d2
(Unnamed Layer* 828) [Shuffle]_output: 3baebbd0
StatefulPartitionedCall/efficientdet-d5/fusion_fpn_cell_0_fnode1/truediv_1:0: 39422667
StatefulPartitionedCall/efficientdet-d5/fusion_fpn_cell_0_fnode1/AddN_1:0: 39769599
StatefulPartitionedCall/efficientdet-d5/activation_1/Sigmoid:0: 3b815405
StatefulPartitionedCall/efficientdet-d5/activation_1/mul_1:0: 390e18cf
StatefulPartitionedCall/efficientdet-d5/fpn_cell_0_fnode1_op_after_combine_2_conv/separable_conv2d/depthwise:0: 3777c38f
StatefulPartitionedCall/efficientdet-d5/fpn_cell_0_fnode1_op_after_combine_2_conv/BiasAdd:0: 36192bb6
StatefulPartitionedCall/efficientdet-d5/fpn_cell_0_fnode1_op_after_combine_2_bn/FusedBatchNormV3:0: 3981293f
(Unnamed Layer* 837) [Shuffle]_output: 39122610
StatefulPartitionedCall/efficientdet-d5/fusion_fpn_cell_0_fnode5/truediv_1:0: 3692495d
Resize__1922:0: 3981293f
(Unnamed Layer* 841) [Shuffle]_output: 3ba2e5cb
StatefulPartitionedCall/efficientdet-d5/fusion_fpn_cell_0_fnode2/truediv_1:0: 39230d23
StatefulPartitionedCall/efficientdet-d5/fusion_fpn_cell_0_fnode2/AddN_1:0: 39467333
StatefulPartitionedCall/efficientdet-d5/activation_2/Sigmoid:0: 3b819124
StatefulPartitionedCall/efficientdet-d5/activation_2/mul_1:0: 38b74aeb
StatefulPartitionedCall/efficientdet-d5/fpn_cell_0_fnode2_op_after_combine_1_conv/separable_conv2d/depthwise:0: 368ac768
StatefulPartitionedCall/efficientdet-d5/fpn_cell_0_fnode2_op_after_combine_1_conv/BiasAdd:0: 35f483c6
StatefulPartitionedCall/efficientdet-d5/fpn_cell_0_fnode2_op_after_combine_1_bn/FusedBatchNormV3:0: 39cdcaae
(Unnamed Layer* 850) [Shuffle]_output: 3954a568
StatefulPartitionedCall/efficientdet-d5/fusion_fpn_cell_0_fnode4/truediv_1:0: 37299055
Resize__1941:0: 39cdcaae
(Unnamed Layer* 854) [Shuffle]_output: 39cd2742
StatefulPartitionedCall/efficientdet-d5/fusion_fpn_cell_0_fnode3/truediv_1:0: 37a396cd
StatefulPartitionedCall/efficientdet-d5/fusion_fpn_cell_0_fnode3/AddN_1:0: 3d244ba0
StatefulPartitionedCall/efficientdet-d5/activation_3/Sigmoid:0: 3bf64a91
StatefulPartitionedCall/efficientdet-d5/activation_3/mul_1:0: 3ce3f05d
StatefulPartitionedCall/efficientdet-d5/fpn_cell_0_fnode3_op_after_combine_0_conv/separable_conv2d/depthwise:0: 3b8331dc
StatefulPartitionedCall/efficientdet-d5/fpn_cell_0_fnode3_op_after_combine_0_conv/BiasAdd:0: 3b5e94d0
StatefulPartitionedCall/efficientdet-d5/fpn_cell_0_fnode3_op_after_combine_0_bn/FusedBatchNormV3:0: 3d5bdacf
StatefulPartitionedCall/efficientdet-d5/max_pooling2d_2/MaxPool:0: 3d5bdacf
(Unnamed Layer* 864) [Shuffle]_output: 3bbf2862
StatefulPartitionedCall/efficientdet-d5/fusion_fpn_cell_1_fnode3/truediv:0: 3d22d86b
(Unnamed Layer* 867) [Shuffle]_output: 3c0babeb
StatefulPartitionedCall/efficientdet-d5/fusion_fpn_cell_0_fnode4/truediv_2:0: 3d6c54ad
(Unnamed Layer* 869) [ElementWise]_output: 3744cb14
StatefulPartitionedCall/efficientdet-d5/fusion_fpn_cell_0_fnode4/AddN_1:0: 3d6c54ef
StatefulPartitionedCall/efficientdet-d5/activation_4/Sigmoid:0: 3c02549b
StatefulPartitionedCall/efficientdet-d5/activation_4/mul_1:0: 3d56f12a
StatefulPartitionedCall/efficientdet-d5/fpn_cell_0_fnode4_op_after_combine_1_conv/separable_conv2d/depthwise:0: 3c1ce560
StatefulPartitionedCall/efficientdet-d5/fpn_cell_0_fnode4_op_after_combine_1_conv/BiasAdd:0: 3bd8cb8a
StatefulPartitionedCall/efficientdet-d5/fpn_cell_0_fnode4_op_after_combine_1_bn/FusedBatchNormV3:0: 3d6b9a80
StatefulPartitionedCall/efficientdet-d5/max_pooling2d_3/MaxPool:0: 3d6b9a80
(Unnamed Layer* 878) [Shuffle]_output: 3b0e8f87
StatefulPartitionedCall/efficientdet-d5/fusion_fpn_cell_1_fnode4/truediv:0: 3c822541
(Unnamed Layer* 881) [Shuffle]_output: 3b990e5d
StatefulPartitionedCall/efficientdet-d5/fusion_fpn_cell_1_fnode2/truediv:0: 3d0bba1a
(Unnamed Layer* 884) [Shuffle]_output: 3c058d83
StatefulPartitionedCall/efficientdet-d5/fusion_fpn_cell_0_fnode5/truediv_2:0: 3d77b11e
(Unnamed Layer* 886) [ElementWise]_output: 36fcba9c
StatefulPartitionedCall/efficientdet-d5/fusion_fpn_cell_0_fnode5/AddN_1:0: 3d77b0f2
StatefulPartitionedCall/efficientdet-d5/activation_5/Sigmoid:0: 3c03d666
StatefulPartitionedCall/efficientdet-d5/activation_5/mul_1:0: 3d8e6fe2
StatefulPartitionedCall/efficientdet-d5/fpn_cell_0_fnode5_op_after_combine_2_conv/separable_conv2d/depthwise:0: 3c16db13
StatefulPartitionedCall/efficientdet-d5/fpn_cell_0_fnode5_op_after_combine_2_conv/BiasAdd:0: 3bba58e0
StatefulPartitionedCall/efficientdet-d5/fpn_cell_0_fnode5_op_after_combine_2_bn/FusedBatchNormV3:0: 3d188ee6
StatefulPartitionedCall/efficientdet-d5/max_pooling2d_4/MaxPool:0: 3d188ee6
(Unnamed Layer* 895) [Shuffle]_output: 39dd34e8
StatefulPartitionedCall/efficientdet-d5/fusion_fpn_cell_1_fnode5/truediv:0: 3b02c311
(Unnamed Layer* 898) [Shuffle]_output: 3b7d3019
StatefulPartitionedCall/efficientdet-d5/fusion_fpn_cell_1_fnode1/truediv:0: 3c95aac6
(Unnamed Layer* 901) [Shuffle]_output: 3c011f73
StatefulPartitionedCall/efficientdet-d5/fusion_fpn_cell_0_fnode6/truediv_2:0: 3d17bc51
(Unnamed Layer* 903) [ElementWise]_output: 346d6835
StatefulPartitionedCall/efficientdet-d5/fusion_fpn_cell_0_fnode6/AddN_1:0: 3d17bc51
StatefulPartitionedCall/efficientdet-d5/activation_6/Sigmoid:0: 3c01d4b4
StatefulPartitionedCall/efficientdet-d5/activation_6/mul_1:0: 3d0e1d11
StatefulPartitionedCall/efficientdet-d5/fpn_cell_0_fnode6_op_after_combine_3_conv/separable_conv2d/depthwise:0: 3bbe5e89
StatefulPartitionedCall/efficientdet-d5/fpn_cell_0_fnode6_op_after_combine_3_conv/BiasAdd:0: 3b0383de
StatefulPartitionedCall/efficientdet-d5/fpn_cell_0_fnode6_op_after_combine_3_bn/FusedBatchNormV3:0: 3cd0988b
StatefulPartitionedCall/efficientdet-d5/max_pooling2d_5/MaxPool:0: 3cd0988b
(Unnamed Layer* 912) [Shuffle]_output: 3952caa4
StatefulPartitionedCall/efficientdet-d5/fusion_fpn_cell_1_fnode6/truediv:0: 3a2a6016
(Unnamed Layer* 915) [Shuffle]_output: 3af5611b
StatefulPartitionedCall/efficientdet-d5/fusion_fpn_cell_1_fnode0/truediv:0: 3bc654d6
(Unnamed Layer* 918) [Shuffle]_output: 3c0119d2
StatefulPartitionedCall/efficientdet-d5/fusion_fpn_cell_0_fnode7/truediv_1:0: 3cdc3b9f
StatefulPartitionedCall/efficientdet-d5/fusion_fpn_cell_0_fnode7/AddN_1:0: 3cdc3b8a
StatefulPartitionedCall/efficientdet-d5/activation_7/Sigmoid:0: 3bf70c90
StatefulPartitionedCall/efficientdet-d5/activation_7/mul_1:0: 3cde07e9
StatefulPartitionedCall/efficientdet-d5/fpn_cell_0_fnode7_op_after_combine_4_conv/separable_conv2d/depthwise:0: 3ba454d4
StatefulPartitionedCall/efficientdet-d5/fpn_cell_0_fnode7_op_after_combine_4_conv/BiasAdd:0: 3af20884
StatefulPartitionedCall/efficientdet-d5/fpn_cell_0_fnode7_op_after_combine_4_bn/FusedBatchNormV3:0: 3cba9066
(Unnamed Layer* 927) [Shuffle]_output: 3b1ea35a
StatefulPartitionedCall/efficientdet-d5/fusion_fpn_cell_1_fnode7/truediv:0: 3be55b8e
Resize__2004:0: 3cba9066
(Unnamed Layer* 931) [Shuffle]_output: 3bc4b481
StatefulPartitionedCall/efficientdet-d5/fusion_fpn_cell_1_fnode0/truediv_1:0: 3c8e3282
StatefulPartitionedCall/efficientdet-d5/fusion_fpn_cell_1_fnode0/AddN_1:0: 3ca4d7c5
StatefulPartitionedCall/efficientdet-d5/activation_8/Sigmoid:0: 3bf178ca
StatefulPartitionedCall/efficientdet-d5/activation_8/mul_1:0: 3c8ff19d
StatefulPartitionedCall/efficientdet-d5/fpn_cell_1_fnode0_op_after_combine_3_conv/separable_conv2d/depthwise:0: 3b2139d6
StatefulPartitionedCall/efficientdet-d5/fpn_cell_1_fnode0_op_after_combine_3_conv/BiasAdd:0: 3a2996ba
StatefulPartitionedCall/efficientdet-d5/fpn_cell_1_fnode0_op_after_combine_3_bn/FusedBatchNormV3:0: 3c89c872
(Unnamed Layer* 940) [Shuffle]_output: 39b12365
StatefulPartitionedCall/efficientdet-d5/fusion_fpn_cell_1_fnode6/truediv_1:0: 3a3d2419
Resize__2023:0: 3c89c872
(Unnamed Layer* 944) [Shuffle]_output: 3b8375c7
StatefulPartitionedCall/efficientdet-d5/fusion_fpn_cell_1_fnode1/truediv_1:0: 3c0c5e21
StatefulPartitionedCall/efficientdet-d5/fusion_fpn_cell_1_fnode1/AddN_1:0: 3cb2c1ec
StatefulPartitionedCall/efficientdet-d5/activation_9/Sigmoid:0: 3bf44bb3
StatefulPartitionedCall/efficientdet-d5/activation_9/mul_1:0: 3ca3f586
StatefulPartitionedCall/efficientdet-d5/fpn_cell_1_fnode1_op_after_combine_2_conv/separable_conv2d/depthwise:0: 3ba1d2ed
StatefulPartitionedCall/efficientdet-d5/fpn_cell_1_fnode1_op_after_combine_2_conv/BiasAdd:0: 3b05d5db
StatefulPartitionedCall/efficientdet-d5/fpn_cell_1_fnode1_op_after_combine_2_bn/FusedBatchNormV3:0: 3d126698
(Unnamed Layer* 953) [Shuffle]_output: 3a0e4b6a
StatefulPartitionedCall/efficientdet-d5/fusion_fpn_cell_1_fnode5/truediv_1:0: 3b21707b
Resize__2042:0: 3d126698
(Unnamed Layer* 957) [Shuffle]_output: 3b5202bb
StatefulPartitionedCall/efficientdet-d5/fusion_fpn_cell_1_fnode2/truediv_1:0: 3c6e4426
StatefulPartitionedCall/efficientdet-d5/fusion_fpn_cell_1_fnode2/AddN_1:0: 3d29ff87
StatefulPartitionedCall/efficientdet-d5/activation_10/Sigmoid:0: 3bfeb6a3
StatefulPartitionedCall/efficientdet-d5/activation_10/mul_1:0: 3cc2c1d3
StatefulPartitionedCall/efficientdet-d5/fpn_cell_1_fnode2_op_after_combine_1_conv/separable_conv2d/depthwise:0: 3b973307
StatefulPartitionedCall/efficientdet-d5/fpn_cell_1_fnode2_op_after_combine_1_conv/BiasAdd:0: 3b1134b9
StatefulPartitionedCall/efficientdet-d5/fpn_cell_1_fnode2_op_after_combine_1_bn/FusedBatchNormV3:0: 3d1ffdd8
(Unnamed Layer* 966) [Shuffle]_output: 3b034594
StatefulPartitionedCall/efficientdet-d5/fusion_fpn_cell_1_fnode4/truediv_1:0: 3c22c26e
Resize__2061:0: 3d1ffdd8
(Unnamed Layer* 970) [Shuffle]_output: 3b05cfe1
StatefulPartitionedCall/efficientdet-d5/fusion_fpn_cell_1_fnode3/truediv_1:0: 3c25e8b5
StatefulPartitionedCall/efficientdet-d5/fusion_fpn_cell_1_fnode3/AddN_1:0: 3d53e904
StatefulPartitionedCall/efficientdet-d5/activation_11/Sigmoid:0: 3c0576b2
StatefulPartitionedCall/efficientdet-d5/activation_11/mul_1:0: 3cd31188
StatefulPartitionedCall/efficientdet-d5/fpn_cell_1_fnode3_op_after_combine_0_conv/separable_conv2d/depthwise:0: 3bc603d1
StatefulPartitionedCall/efficientdet-d5/fpn_cell_1_fnode3_op_after_combine_0_conv/BiasAdd:0: 3b7d65ef
StatefulPartitionedCall/efficientdet-d5/fpn_cell_1_fnode3_op_after_combine_0_bn/FusedBatchNormV3:0: 3d7d2118
StatefulPartitionedCall/efficientdet-d5/max_pooling2d_6/MaxPool:0: 3d7d2118
(Unnamed Layer* 980) [Shuffle]_output: 3b9b32c5
StatefulPartitionedCall/efficientdet-d5/fusion_fpn_cell_2_fnode3/truediv:0: 3d1838cf
(Unnamed Layer* 983) [Shuffle]_output: 3b724c94
StatefulPartitionedCall/efficientdet-d5/fusion_fpn_cell_1_fnode4/truediv_2:0: 3cf06674
(Unnamed Layer* 985) [ElementWise]_output: 3cb6c1bf
StatefulPartitionedCall/efficientdet-d5/fusion_fpn_cell_1_fnode4/AddN_1:0: 3d19971a
StatefulPartitionedCall/efficientdet-d5/activation_12/Sigmoid:0: 3c00a801
StatefulPartitionedCall/efficientdet-d5/activation_12/mul_1:0: 3cff2cfc
StatefulPartitionedCall/efficientdet-d5/fpn_cell_1_fnode4_op_after_combine_1_conv/separable_conv2d/depthwise:0: 3bc20dcc
StatefulPartitionedCall/efficientdet-d5/fpn_cell_1_fnode4_op_after_combine_1_conv/BiasAdd:0: 3b466c24
StatefulPartitionedCall/efficientdet-d5/fpn_cell_1_fnode4_op_after_combine_1_bn/FusedBatchNormV3:0: 3d57a30d
StatefulPartitionedCall/efficientdet-d5/max_pooling2d_7/MaxPool:0: 3d57a30d
(Unnamed Layer* 994) [Shuffle]_output: 3ac5297a
StatefulPartitionedCall/efficientdet-d5/fusion_fpn_cell_2_fnode4/truediv:0: 3c24bcf7
(Unnamed Layer* 997) [Shuffle]_output: 3b926151
StatefulPartitionedCall/efficientdet-d5/fusion_fpn_cell_2_fnode2/truediv:0: 3cf49d70
(Unnamed Layer* 1000) [Shuffle]_output: 3be26eef
StatefulPartitionedCall/efficientdet-d5/fusion_fpn_cell_1_fnode5/truediv_2:0: 3d5866b2
(Unnamed Layer* 1002) [ElementWise]_output: 3b54aa1b
StatefulPartitionedCall/efficientdet-d5/fusion_fpn_cell_1_fnode5/AddN_1:0: 3d5410fa
StatefulPartitionedCall/efficientdet-d5/activation_13/Sigmoid:0: 3c00df28
StatefulPartitionedCall/efficientdet-d5/activation_13/mul_1:0: 3d3e4b77
StatefulPartitionedCall/efficientdet-d5/fpn_cell_1_fnode5_op_after_combine_2_conv/separable_conv2d/depthwise:0: 3bdc284f
StatefulPartitionedCall/efficientdet-d5/fpn_cell_1_fnode5_op_after_combine_2_conv/BiasAdd:0: 3b3044d6
StatefulPartitionedCall/efficientdet-d5/fpn_cell_1_fnode5_op_after_combine_2_bn/FusedBatchNormV3:0: 3d1e0407
StatefulPartitionedCall/efficientdet-d5/max_pooling2d_8/MaxPool:0: 3d1e0407
(Unnamed Layer* 1011) [Shuffle]_output: 39b52466
StatefulPartitionedCall/efficientdet-d5/fusion_fpn_cell_2_fnode5/truediv:0: 3addd185
(Unnamed Layer* 1014) [Shuffle]_output: 3b4e08dd
StatefulPartitionedCall/efficientdet-d5/fusion_fpn_cell_2_fnode1/truediv:0: 3c7c4cf4
(Unnamed Layer* 1017) [Shuffle]_output: 3c09d8b8
StatefulPartitionedCall/efficientdet-d5/fusion_fpn_cell_1_fnode6/truediv_2:0: 3d419251
(Unnamed Layer* 1019) [ElementWise]_output: 3a670017
StatefulPartitionedCall/efficientdet-d5/fusion_fpn_cell_1_fnode6/AddN_1:0: 3d4b61a4
StatefulPartitionedCall/efficientdet-d5/activation_14/Sigmoid:0: 3c01197b
StatefulPartitionedCall/efficientdet-d5/activation_14/mul_1:0: 3d3cb25f
StatefulPartitionedCall/efficientdet-d5/fpn_cell_1_fnode6_op_after_combine_3_conv/separable_conv2d/depthwise:0: 3bb740c1
StatefulPartitionedCall/efficientdet-d5/fpn_cell_1_fnode6_op_after_combine_3_conv/BiasAdd:0: 3aeb3d0d
StatefulPartitionedCall/efficientdet-d5/fpn_cell_1_fnode6_op_after_combine_3_bn/FusedBatchNormV3:0: 3cf9f29d
StatefulPartitionedCall/efficientdet-d5/max_pooling2d_9/MaxPool:0: 3cf9f29d
(Unnamed Layer* 1028) [Shuffle]_output: 3993cbc6
StatefulPartitionedCall/efficientdet-d5/fusion_fpn_cell_2_fnode6/truediv:0: 3a8f23b7
(Unnamed Layer* 1031) [Shuffle]_output: 3ac59f84
StatefulPartitionedCall/efficientdet-d5/fusion_fpn_cell_2_fnode0/truediv:0: 3bbf6593
(Unnamed Layer* 1034) [Shuffle]_output: 3bb2bb87
StatefulPartitionedCall/efficientdet-d5/fusion_fpn_cell_1_fnode7/truediv_1:0: 3cadb558
StatefulPartitionedCall/efficientdet-d5/fusion_fpn_cell_1_fnode7/AddN_1:0: 3cc1eb78
StatefulPartitionedCall/efficientdet-d5/activation_15/Sigmoid:0: 3bf4db54
StatefulPartitionedCall/efficientdet-d5/activation_15/mul_1:0: 3cb07270
StatefulPartitionedCall/efficientdet-d5/fpn_cell_1_fnode7_op_after_combine_4_conv/separable_conv2d/depthwise:0: 3b872dad
StatefulPartitionedCall/efficientdet-d5/fpn_cell_1_fnode7_op_after_combine_4_conv/BiasAdd:0: 3ab1caef
StatefulPartitionedCall/efficientdet-d5/fpn_cell_1_fnode7_op_after_combine_4_bn/FusedBatchNormV3:0: 3cdb4f91
(Unnamed Layer* 1043) [Shuffle]_output: 3b60a9e0
StatefulPartitionedCall/efficientdet-d5/fusion_fpn_cell_2_fnode7/truediv:0: 3c3eea49
Resize__2124:0: 3cdb4f91
(Unnamed Layer* 1047) [Shuffle]_output: 3bd0a4a8
StatefulPartitionedCall/efficientdet-d5/fusion_fpn_cell_2_fnode0/truediv_1:0: 3cb14d25
StatefulPartitionedCall/efficientdet-d5/fusion_fpn_cell_2_fnode0/AddN_1:0: 3cdf26ba
StatefulPartitionedCall/efficientdet-d5/activation_16/Sigmoid:0: 3bfdda0c
StatefulPartitionedCall/efficientdet-d5/activation_16/mul_1:0: 3c9addfa
StatefulPartitionedCall/efficientdet-d5/fpn_cell_2_fnode0_op_after_combine_3_conv/separable_conv2d/depthwise:0: 3b73a490
StatefulPartitionedCall/efficientdet-d5/fpn_cell_2_fnode0_op_after_combine_3_conv/BiasAdd:0: 3aff1480
StatefulPartitionedCall/efficientdet-d5/fpn_cell_2_fnode0_op_after_combine_3_bn/FusedBatchNormV3:0: 3d09bfbd
(Unnamed Layer* 1056) [Shuffle]_output: 3976d8ec
StatefulPartitionedCall/efficientdet-d5/fusion_fpn_cell_2_fnode6/truediv_1:0: 3a83c116
Resize__2143:0: 3d09bfbd
(Unnamed Layer* 1060) [Shuffle]_output: 3b9b0980
StatefulPartitionedCall/efficientdet-d5/fusion_fpn_cell_2_fnode1/truediv_1:0: 3ca58060
StatefulPartitionedCall/efficientdet-d5/fusion_fpn_cell_2_fnode1/AddN_1:0: 3cbda81c
StatefulPartitionedCall/efficientdet-d5/activation_17/Sigmoid:0: 3bf5534d
StatefulPartitionedCall/efficientdet-d5/activation_17/mul_1:0: 3c9907bc
StatefulPartitionedCall/efficientdet-d5/fpn_cell_2_fnode1_op_after_combine_2_conv/separable_conv2d/depthwise:0: 3b6de9c2
StatefulPartitionedCall/efficientdet-d5/fpn_cell_2_fnode1_op_after_combine_2_conv/BiasAdd:0: 3ae1b2e5
StatefulPartitionedCall/efficientdet-d5/fpn_cell_2_fnode1_op_after_combine_2_bn/FusedBatchNormV3:0: 3d162e33
(Unnamed Layer* 1069) [Shuffle]_output: 3a4a49b5
StatefulPartitionedCall/efficientdet-d5/fusion_fpn_cell_2_fnode5/truediv_1:0: 3b6b6dff
Resize__2162:0: 3d162e33
(Unnamed Layer* 1073) [Shuffle]_output: 3b5f5b10
StatefulPartitionedCall/efficientdet-d5/fusion_fpn_cell_2_fnode2/truediv_1:0: 3c81f97c
StatefulPartitionedCall/efficientdet-d5/fusion_fpn_cell_2_fnode2/AddN_1:0: 3d12af5d
StatefulPartitionedCall/efficientdet-d5/activation_18/Sigmoid:0: 3bfb5ed9
StatefulPartitionedCall/efficientdet-d5/activation_18/mul_1:0: 3cb2b0d2
StatefulPartitionedCall/efficientdet-d5/fpn_cell_2_fnode2_op_after_combine_1_conv/separable_conv2d/depthwise:0: 3ba2adab
StatefulPartitionedCall/efficientdet-d5/fpn_cell_2_fnode2_op_after_combine_1_conv/BiasAdd:0: 3ae39e48
StatefulPartitionedCall/efficientdet-d5/fpn_cell_2_fnode2_op_after_combine_1_bn/FusedBatchNormV3:0: 3d163a8a
(Unnamed Layer* 1082) [Shuffle]_output: 3af6cbfb
StatefulPartitionedCall/efficientdet-d5/fusion_fpn_cell_2_fnode4/truediv_1:0: 3c0fa953
Resize__2181:0: 3d163a8a
(Unnamed Layer* 1086) [Shuffle]_output: 3b4db9bb
StatefulPartitionedCall/efficientdet-d5/fusion_fpn_cell_2_fnode3/truediv_1:0: 3c6f81de
StatefulPartitionedCall/efficientdet-d5/fusion_fpn_cell_2_fnode3/AddN_1:0: 3d2737a4
StatefulPartitionedCall/efficientdet-d5/activation_19/Sigmoid:0: 3c00a04d
StatefulPartitionedCall/efficientdet-d5/activation_19/mul_1:0: 3cc0c9a6
StatefulPartitionedCall/efficientdet-d5/fpn_cell_2_fnode3_op_after_combine_0_conv/separable_conv2d/depthwise:0: 3bbc861b
StatefulPartitionedCall/efficientdet-d5/fpn_cell_2_fnode3_op_after_combine_0_conv/BiasAdd:0: 3b32f9bb
StatefulPartitionedCall/efficientdet-d5/fpn_cell_2_fnode3_op_after_combine_0_bn/FusedBatchNormV3:0: 3d529b3d
StatefulPartitionedCall/efficientdet-d5/max_pooling2d_10/MaxPool:0: 3d529b3d
(Unnamed Layer* 1096) [Shuffle]_output: 3b9984b8
StatefulPartitionedCall/efficientdet-d5/fusion_fpn_cell_3_fnode3/truediv:0: 3cfa8f15
(Unnamed Layer* 1099) [Shuffle]_output: 3b931206
StatefulPartitionedCall/efficientdet-d5/fusion_fpn_cell_2_fnode4/truediv_2:0: 3d08e932
(Unnamed Layer* 1101) [ElementWise]_output: 3c5ea7d4
StatefulPartitionedCall/efficientdet-d5/fusion_fpn_cell_2_fnode4/AddN_1:0: 3d0e47ba
StatefulPartitionedCall/efficientdet-d5/activation_20/Sigmoid:0: 3bff11a2
StatefulPartitionedCall/efficientdet-d5/activation_20/mul_1:0: 3cfd1a1c
StatefulPartitionedCall/efficientdet-d5/fpn_cell_2_fnode4_op_after_combine_1_conv/separable_conv2d/depthwise:0: 3bb8eb4d
StatefulPartitionedCall/efficientdet-d5/fpn_cell_2_fnode4_op_after_combine_1_conv/BiasAdd:0: 3b4f6d81
StatefulPartitionedCall/efficientdet-d5/fpn_cell_2_fnode4_op_after_combine_1_bn/FusedBatchNormV3:0: 3d4f16ac
StatefulPartitionedCall/efficientdet-d5/max_pooling2d_11/MaxPool:0: 3d4f16ac
(Unnamed Layer* 1110) [Shuffle]_output: 3a6a452e
StatefulPartitionedCall/efficientdet-d5/fusion_fpn_cell_3_fnode4/truediv:0: 3bbbfbeb
(Unnamed Layer* 1113) [Shuffle]_output: 3b81fbf4
StatefulPartitionedCall/efficientdet-d5/fusion_fpn_cell_3_fnode2/truediv:0: 3cd09ad8
(Unnamed Layer* 1116) [Shuffle]_output: 3bf41400
StatefulPartitionedCall/efficientdet-d5/fusion_fpn_cell_2_fnode5/truediv_2:0: 3d50bf3a
(Unnamed Layer* 1118) [ElementWise]_output: 3b85dcf2
StatefulPartitionedCall/efficientdet-d5/fusion_fpn_cell_2_fnode5/AddN_1:0: 3d49e87a
StatefulPartitionedCall/efficientdet-d5/activation_21/Sigmoid:0: 3c02645b
StatefulPartitionedCall/efficientdet-d5/activation_21/mul_1:0: 3d3dd4cf
StatefulPartitionedCall/efficientdet-d5/fpn_cell_2_fnode5_op_after_combine_2_conv/separable_conv2d/depthwise:0: 3bf0f10d
StatefulPartitionedCall/efficientdet-d5/fpn_cell_2_fnode5_op_after_combine_2_conv/BiasAdd:0: 3b261730
StatefulPartitionedCall/efficientdet-d5/fpn_cell_2_fnode5_op_after_combine_2_bn/FusedBatchNormV3:0: 3d359ac9
StatefulPartitionedCall/efficientdet-d5/max_pooling2d_12/MaxPool:0: 3d359ac9
(Unnamed Layer* 1127) [Shuffle]_output: 3a0b3774
StatefulPartitionedCall/efficientdet-d5/fusion_fpn_cell_3_fnode5/truediv:0: 3b43ed7a
(Unnamed Layer* 1130) [Shuffle]_output: 3b836936
StatefulPartitionedCall/efficientdet-d5/fusion_fpn_cell_3_fnode1/truediv:0: 3cb8f13b
(Unnamed Layer* 1133) [Shuffle]_output: 3c097e32
StatefulPartitionedCall/efficientdet-d5/fusion_fpn_cell_2_fnode6/truediv_2:0: 3d59464e
(Unnamed Layer* 1135) [ElementWise]_output: 3aacdecb
StatefulPartitionedCall/efficientdet-d5/fusion_fpn_cell_2_fnode6/AddN_1:0: 3d5ebfac
StatefulPartitionedCall/efficientdet-d5/activation_22/Sigmoid:0: 3c00cf67
StatefulPartitionedCall/efficientdet-d5/activation_22/mul_1:0: 3d412646
StatefulPartitionedCall/efficientdet-d5/fpn_cell_2_fnode6_op_after_combine_3_conv/separable_conv2d/depthwise:0: 3c055d0d
StatefulPartitionedCall/efficientdet-d5/fpn_cell_2_fnode6_op_after_combine_3_conv/BiasAdd:0: 3b300f82
StatefulPartitionedCall/efficientdet-d5/fpn_cell_2_fnode6_op_after_combine_3_bn/FusedBatchNormV3:0: 3d1f74ea
StatefulPartitionedCall/efficientdet-d5/max_pooling2d_13/MaxPool:0: 3d1f74ea
(Unnamed Layer* 1144) [Shuffle]_output: 3885a0c7
StatefulPartitionedCall/efficientdet-d5/fusion_fpn_cell_3_fnode6/truediv:0: 39a52083
(Unnamed Layer* 1147) [Shuffle]_output: 3b6757ef
StatefulPartitionedCall/efficientdet-d5/fusion_fpn_cell_3_fnode0/truediv:0: 3c8ef022
(Unnamed Layer* 1150) [Shuffle]_output: 3b91b8bc
StatefulPartitionedCall/efficientdet-d5/fusion_fpn_cell_2_fnode7/truediv_1:0: 3cc7d9ad
StatefulPartitionedCall/efficientdet-d5/fusion_fpn_cell_2_fnode7/AddN_1:0: 3cc14c52
StatefulPartitionedCall/efficientdet-d5/activation_23/Sigmoid:0: 3bfc9bc4
StatefulPartitionedCall/efficientdet-d5/activation_23/mul_1:0: 3cbf5746
StatefulPartitionedCall/efficientdet-d5/fpn_cell_2_fnode7_op_after_combine_4_conv/separable_conv2d/depthwise:0: 3b448078
StatefulPartitionedCall/efficientdet-d5/fpn_cell_2_fnode7_op_after_combine_4_conv/BiasAdd:0: 3a89e533
StatefulPartitionedCall/efficientdet-d5/fpn_cell_2_fnode7_op_after_combine_4_bn/FusedBatchNormV3:0: 3cb37428
(Unnamed Layer* 1159) [Shuffle]_output: 3b5f364e
StatefulPartitionedCall/efficientdet-d5/fusion_fpn_cell_3_fnode7/truediv:0: 3c1b359c
Resize__2244:0: 3cd3e4a7
(Unnamed Layer* 1163) [Shuffle]_output: 3b8e61b4
StatefulPartitionedCall/efficientdet-d5/fusion_fpn_cell_3_fnode0/truediv_1:0: 3c69cd63
StatefulPartitionedCall/efficientdet-d5/fusion_fpn_cell_3_fnode0/AddN_1:0: 3cacb15d
StatefulPartitionedCall/efficientdet-d5/activation_24/Sigmoid:0: 3bf8deee
StatefulPartitionedCall/efficientdet-d5/activation_24/mul_1:0: 3c8f96c8
StatefulPartitionedCall/efficientdet-d5/fpn_cell_3_fnode0_op_after_combine_3_conv/separable_conv2d/depthwise:0: 3b3c1c42
StatefulPartitionedCall/efficientdet-d5/fpn_cell_3_fnode0_op_after_combine_3_conv/BiasAdd:0: 3a56d785
StatefulPartitionedCall/efficientdet-d5/fpn_cell_3_fnode0_op_after_combine_3_bn/FusedBatchNormV3:0: 3cb2eebd
(Unnamed Layer* 1172) [Shuffle]_output: 396a9d24
StatefulPartitionedCall/efficientdet-d5/fusion_fpn_cell_3_fnode6/truediv_1:0: 3a22a9ec
Resize__2263:0: 3cb969a7
(Unnamed Layer* 1176) [Shuffle]_output: 3b7d496c
StatefulPartitionedCall/efficientdet-d5/fusion_fpn_cell_3_fnode1/truediv_1:0: 3c35f853
StatefulPartitionedCall/efficientdet-d5/fusion_fpn_cell_3_fnode1/AddN_1:0: 3cdeb94b
StatefulPartitionedCall/efficientdet-d5/activation_25/Sigmoid:0: 3bf8a08c
StatefulPartitionedCall/efficientdet-d5/activation_25/mul_1:0: 3cb1385e
StatefulPartitionedCall/efficientdet-d5/fpn_cell_3_fnode1_op_after_combine_2_conv/separable_conv2d/depthwise:0: 3b80b437
StatefulPartitionedCall/efficientdet-d5/fpn_cell_3_fnode1_op_after_combine_2_conv/BiasAdd:0: 3ad1ba44
StatefulPartitionedCall/efficientdet-d5/fpn_cell_3_fnode1_op_after_combine_2_bn/FusedBatchNormV3:0: 3d070642
(Unnamed Layer* 1185) [Shuffle]_output: 3836e3d3
StatefulPartitionedCall/efficientdet-d5/fusion_fpn_cell_3_fnode5/truediv_1:0: 393f5f67
Resize__2282:0: 3d070642
(Unnamed Layer* 1189) [Shuffle]_output: 3b8012ad
StatefulPartitionedCall/efficientdet-d5/fusion_fpn_cell_3_fnode2/truediv_1:0: 3c860361
StatefulPartitionedCall/efficientdet-d5/fusion_fpn_cell_3_fnode2/AddN_1:0: 3d0a3d12
StatefulPartitionedCall/efficientdet-d5/activation_26/Sigmoid:0: 3bfa7bcd
StatefulPartitionedCall/efficientdet-d5/activation_26/mul_1:0: 3c906f79
StatefulPartitionedCall/efficientdet-d5/fpn_cell_3_fnode2_op_after_combine_1_conv/separable_conv2d/depthwise:0: 3b938075
StatefulPartitionedCall/efficientdet-d5/fpn_cell_3_fnode2_op_after_combine_1_conv/BiasAdd:0: 3ae0c321
StatefulPartitionedCall/efficientdet-d5/fpn_cell_3_fnode2_op_after_combine_1_bn/FusedBatchNormV3:0: 3d1bdd48
(Unnamed Layer* 1198) [Shuffle]_output: 3ade71d2
StatefulPartitionedCall/efficientdet-d5/fusion_fpn_cell_3_fnode4/truediv_1:0: 3c0657ec
Resize__2301:0: 3d1bdd48
(Unnamed Layer* 1202) [Shuffle]_output: 3b5115e5
StatefulPartitionedCall/efficientdet-d5/fusion_fpn_cell_3_fnode3/truediv_1:0: 3c7c8cfa
StatefulPartitionedCall/efficientdet-d5/fusion_fpn_cell_3_fnode3/AddN_1:0: 3d12d749
StatefulPartitionedCall/efficientdet-d5/activation_27/Sigmoid:0: 3c003941
StatefulPartitionedCall/efficientdet-d5/activation_27/mul_1:0: 3cb389cb
StatefulPartitionedCall/efficientdet-d5/fpn_cell_3_fnode3_op_after_combine_0_conv/separable_conv2d/depthwise:0: 3babaed8
StatefulPartitionedCall/efficientdet-d5/fpn_cell_3_fnode3_op_after_combine_0_conv/BiasAdd:0: 3b23022f
StatefulPartitionedCall/efficientdet-d5/fpn_cell_3_fnode3_op_after_combine_0_bn/FusedBatchNormV3:0: 3d4a49f7
StatefulPartitionedCall/efficientdet-d5/max_pooling2d_14/MaxPool:0: 3d4a49f7
(Unnamed Layer* 1212) [Shuffle]_output: 3b8f320f
StatefulPartitionedCall/efficientdet-d5/fusion_fpn_cell_4_fnode3/truediv:0: 3ce07b1a
(Unnamed Layer* 1215) [Shuffle]_output: 3bad299c
StatefulPartitionedCall/efficientdet-d5/fusion_fpn_cell_3_fnode4/truediv_2:0: 3d28258d
(Unnamed Layer* 1217) [ElementWise]_output: 3c2dc47e
StatefulPartitionedCall/efficientdet-d5/fusion_fpn_cell_3_fnode4/AddN_1:0: 3d299aec
StatefulPartitionedCall/efficientdet-d5/activation_28/Sigmoid:0: 3c00d20e
StatefulPartitionedCall/efficientdet-d5/activation_28/mul_1:0: 3d0e6366
StatefulPartitionedCall/efficientdet-d5/fpn_cell_3_fnode4_op_after_combine_1_conv/separable_conv2d/depthwise:0: 3babcce0
StatefulPartitionedCall/efficientdet-d5/fpn_cell_3_fnode4_op_after_combine_1_conv/BiasAdd:0: 3b317fc1
StatefulPartitionedCall/efficientdet-d5/fpn_cell_3_fnode4_op_after_combine_1_bn/FusedBatchNormV3:0: 3d570931
StatefulPartitionedCall/efficientdet-d5/max_pooling2d_15/MaxPool:0: 3d570931
(Unnamed Layer* 1226) [Shuffle]_output: 39b2949f
StatefulPartitionedCall/efficientdet-d5/fusion_fpn_cell_4_fnode4/truediv:0: 3b14cbed
(Unnamed Layer* 1229) [Shuffle]_output: 3b768741
StatefulPartitionedCall/efficientdet-d5/fusion_fpn_cell_4_fnode2/truediv:0: 3ccd6972
(Unnamed Layer* 1232) [Shuffle]_output: 3bf21245
StatefulPartitionedCall/efficientdet-d5/fusion_fpn_cell_3_fnode5/truediv_2:0: 3d697462
(Unnamed Layer* 1234) [ElementWise]_output: 3b3d6a08
StatefulPartitionedCall/efficientdet-d5/fusion_fpn_cell_3_fnode5/AddN_1:0: 3d67e4bb
StatefulPartitionedCall/efficientdet-d5/activation_29/Sigmoid:0: 3c01baa4
StatefulPartitionedCall/efficientdet-d5/activation_29/mul_1:0: 3d421a76
StatefulPartitionedCall/efficientdet-d5/fpn_cell_3_fnode5_op_after_combine_2_conv/separable_conv2d/depthwise:0: 3c06b397
StatefulPartitionedCall/efficientdet-d5/fpn_cell_3_fnode5_op_after_combine_2_conv/BiasAdd:0: 3b3577b7
StatefulPartitionedCall/efficientdet-d5/fpn_cell_3_fnode5_op_after_combine_2_bn/FusedBatchNormV3:0: 3d51d01c
StatefulPartitionedCall/efficientdet-d5/max_pooling2d_16/MaxPool:0: 3d51d01c
(Unnamed Layer* 1243) [Shuffle]_output: 39a887bf
StatefulPartitionedCall/efficientdet-d5/fusion_fpn_cell_4_fnode5/truediv:0: 3b090304
(Unnamed Layer* 1246) [Shuffle]_output: 3b63f463
StatefulPartitionedCall/efficientdet-d5/fusion_fpn_cell_4_fnode1/truediv:0: 3cb95298
(Unnamed Layer* 1249) [Shuffle]_output: 3c05baaa
StatefulPartitionedCall/efficientdet-d5/fusion_fpn_cell_3_fnode6/truediv_2:0: 3d7175ca
(Unnamed Layer* 1251) [ElementWise]_output: 3a3be1ea
StatefulPartitionedCall/efficientdet-d5/fusion_fpn_cell_3_fnode6/AddN_1:0: 3d80b434
StatefulPartitionedCall/efficientdet-d5/activation_30/Sigmoid:0: 3c03022e
StatefulPartitionedCall/efficientdet-d5/activation_30/mul_1:0: 3d68cd23
StatefulPartitionedCall/efficientdet-d5/fpn_cell_3_fnode6_op_after_combine_3_conv/separable_conv2d/depthwise:0: 3bf28212
StatefulPartitionedCall/efficientdet-d5/fpn_cell_3_fnode6_op_after_combine_3_conv/BiasAdd:0: 3b550a41
StatefulPartitionedCall/efficientdet-d5/fpn_cell_3_fnode6_op_after_combine_3_bn/FusedBatchNormV3:0: 3d1854c4
StatefulPartitionedCall/efficientdet-d5/max_pooling2d_17/MaxPool:0: 3d1854c4
(Unnamed Layer* 1260) [Shuffle]_output: 39215d8a
StatefulPartitionedCall/efficientdet-d5/fusion_fpn_cell_4_fnode6/truediv:0: 3a3e7df5
(Unnamed Layer* 1263) [Shuffle]_output: 3b6efe83
StatefulPartitionedCall/efficientdet-d5/fusion_fpn_cell_4_fnode0/truediv:0: 3c8d1103
(Unnamed Layer* 1266) [Shuffle]_output: 3b9272bb
StatefulPartitionedCall/efficientdet-d5/fusion_fpn_cell_3_fnode7/truediv_1:0: 3cb7b12a
StatefulPartitionedCall/efficientdet-d5/fusion_fpn_cell_3_fnode7/AddN_1:0: 3cdebf2d
StatefulPartitionedCall/efficientdet-d5/activation_31/Sigmoid:0: 3bfcee2e
StatefulPartitionedCall/efficientdet-d5/activation_31/mul_1:0: 3cc68962
StatefulPartitionedCall/efficientdet-d5/fpn_cell_3_fnode7_op_after_combine_4_conv/separable_conv2d/depthwise:0: 3b929cc1
StatefulPartitionedCall/efficientdet-d5/fpn_cell_3_fnode7_op_after_combine_4_conv/BiasAdd:0: 3ab3f782
StatefulPartitionedCall/efficientdet-d5/fpn_cell_3_fnode7_op_after_combine_4_bn/FusedBatchNormV3:0: 3ccfeb11
(Unnamed Layer* 1275) [Shuffle]_output: 3b67cf8f
StatefulPartitionedCall/efficientdet-d5/fusion_fpn_cell_4_fnode7/truediv:0: 3c3ac179
Resize__2364:0: 3ccfeb11
(Unnamed Layer* 1279) [Shuffle]_output: 3b8a8e97
StatefulPartitionedCall/efficientdet-d5/fusion_fpn_cell_4_fnode0/truediv_1:0: 3c5f40f7
StatefulPartitionedCall/efficientdet-d5/fusion_fpn_cell_4_fnode0/AddN_1:0: 3cc6dbe2
StatefulPartitionedCall/efficientdet-d5/activation_32/Sigmoid:0: 3bf3c10b
StatefulPartitionedCall/efficientdet-d5/activation_32/mul_1:0: 3c902530
StatefulPartitionedCall/efficientdet-d5/fpn_cell_4_fnode0_op_after_combine_3_conv/separable_conv2d/depthwise:0: 3b3d31af
StatefulPartitionedCall/efficientdet-d5/fpn_cell_4_fnode0_op_after_combine_3_conv/BiasAdd:0: 3a84af35
StatefulPartitionedCall/efficientdet-d5/fpn_cell_4_fnode0_op_after_combine_3_bn/FusedBatchNormV3:0: 3cc617f6
(Unnamed Layer* 1288) [Shuffle]_output: 39213287
StatefulPartitionedCall/efficientdet-d5/fusion_fpn_cell_4_fnode6/truediv_1:0: 39f775f0
Resize__2383:0: 3ccb8ae8
(Unnamed Layer* 1292) [Shuffle]_output: 3b901400
StatefulPartitionedCall/efficientdet-d5/fusion_fpn_cell_4_fnode1/truediv_1:0: 3c6343a4
StatefulPartitionedCall/efficientdet-d5/fusion_fpn_cell_4_fnode1/AddN_1:0: 3ccd1069
StatefulPartitionedCall/efficientdet-d5/activation_33/Sigmoid:0: 3bfac31f
StatefulPartitionedCall/efficientdet-d5/activation_33/mul_1:0: 3c994f65
StatefulPartitionedCall/efficientdet-d5/fpn_cell_4_fnode1_op_after_combine_2_conv/separable_conv2d/depthwise:0: 3b66db43
StatefulPartitionedCall/efficientdet-d5/fpn_cell_4_fnode1_op_after_combine_2_conv/BiasAdd:0: 3a971796
StatefulPartitionedCall/efficientdet-d5/fpn_cell_4_fnode1_op_after_combine_2_bn/FusedBatchNormV3:0: 3d015087
(Unnamed Layer* 1301) [Shuffle]_output: 382e7fbd
StatefulPartitionedCall/efficientdet-d5/fusion_fpn_cell_4_fnode5/truediv_1:0: 392edf03
Resize__2402:0: 3d015087
(Unnamed Layer* 1305) [Shuffle]_output: 3b86cb39
StatefulPartitionedCall/efficientdet-d5/fusion_fpn_cell_4_fnode2/truediv_1:0: 3c8714d1
StatefulPartitionedCall/efficientdet-d5/fusion_fpn_cell_4_fnode2/AddN_1:0: 3d03107b
StatefulPartitionedCall/efficientdet-d5/activation_34/Sigmoid:0: 3bfc52f2
StatefulPartitionedCall/efficientdet-d5/activation_34/mul_1:0: 3ca5f376
StatefulPartitionedCall/efficientdet-d5/fpn_cell_4_fnode2_op_after_combine_1_conv/separable_conv2d/depthwise:0: 3b830622
StatefulPartitionedCall/efficientdet-d5/fpn_cell_4_fnode2_op_after_combine_1_conv/BiasAdd:0: 3ab3a2bb
StatefulPartitionedCall/efficientdet-d5/fpn_cell_4_fnode2_op_after_combine_1_bn/FusedBatchNormV3:0: 3d08bdd5
(Unnamed Layer* 1314) [Shuffle]_output: 3a8fe63a
StatefulPartitionedCall/efficientdet-d5/fusion_fpn_cell_4_fnode4/truediv_1:0: 3b987d0b
Resize__2421:0: 3d08bdd5
(Unnamed Layer* 1318) [Shuffle]_output: 3b65baf3
StatefulPartitionedCall/efficientdet-d5/fusion_fpn_cell_4_fnode3/truediv_1:0: 3c737148
StatefulPartitionedCall/efficientdet-d5/fusion_fpn_cell_4_fnode3/AddN_1:0: 3d00ef6d
StatefulPartitionedCall/efficientdet-d5/activation_35/Sigmoid:0: 3c00484c
StatefulPartitionedCall/efficientdet-d5/activation_35/mul_1:0: 3c908e85
StatefulPartitionedCall/efficientdet-d5/fpn_cell_4_fnode3_op_after_combine_0_conv/separable_conv2d/depthwise:0: 3b8d7441
StatefulPartitionedCall/efficientdet-d5/fpn_cell_4_fnode3_op_after_combine_0_conv/BiasAdd:0: 3b01393d
StatefulPartitionedCall/efficientdet-d5/fpn_cell_4_fnode3_op_after_combine_0_bn/FusedBatchNormV3:0: 3d411026
StatefulPartitionedCall/efficientdet-d5/max_pooling2d_18/MaxPool:0: 3d411026
(Unnamed Layer* 1328) [Shuffle]_output: 3b796207
StatefulPartitionedCall/efficientdet-d5/fusion_fpn_cell_5_fnode3/truediv:0: 3cba8ed4
(Unnamed Layer* 1331) [Shuffle]_output: 3bd2ea97
StatefulPartitionedCall/efficientdet-d5/fusion_fpn_cell_4_fnode4/truediv_2:0: 3d41936a
(Unnamed Layer* 1333) [ElementWise]_output: 3ba8f034
StatefulPartitionedCall/efficientdet-d5/fusion_fpn_cell_4_fnode4/AddN_1:0: 3d425458
StatefulPartitionedCall/efficientdet-d5/activation_36/Sigmoid:0: 3c0106d3
StatefulPartitionedCall/efficientdet-d5/activation_36/mul_1:0: 3d21f42e
StatefulPartitionedCall/efficientdet-d5/fpn_cell_4_fnode4_op_after_combine_1_conv/separable_conv2d/depthwise:0: 3bbb9248
StatefulPartitionedCall/efficientdet-d5/fpn_cell_4_fnode4_op_after_combine_1_conv/BiasAdd:0: 3b3f4314
StatefulPartitionedCall/efficientdet-d5/fpn_cell_4_fnode4_op_after_combine_1_bn/FusedBatchNormV3:0: 3d644268
StatefulPartitionedCall/efficientdet-d5/max_pooling2d_19/MaxPool:0: 3d644268
(Unnamed Layer* 1342) [Shuffle]_output: 396f3292
StatefulPartitionedCall/efficientdet-d5/fusion_fpn_cell_5_fnode4/truediv:0: 3ad38f50
(Unnamed Layer* 1345) [Shuffle]_output: 3b8affe2
StatefulPartitionedCall/efficientdet-d5/fusion_fpn_cell_5_fnode2/truediv:0: 3cf5e0c9
(Unnamed Layer* 1348) [Shuffle]_output: 3bf62591
StatefulPartitionedCall/efficientdet-d5/fusion_fpn_cell_4_fnode5/truediv_2:0: 3d6da532
(Unnamed Layer* 1350) [ElementWise]_output: 3b04234f
StatefulPartitionedCall/efficientdet-d5/fusion_fpn_cell_4_fnode5/AddN_1:0: 3d7c10e1
StatefulPartitionedCall/efficientdet-d5/activation_37/Sigmoid:0: 3c011843
StatefulPartitionedCall/efficientdet-d5/activation_37/mul_1:0: 3d6649ad
StatefulPartitionedCall/efficientdet-d5/fpn_cell_4_fnode5_op_after_combine_2_conv/separable_conv2d/depthwise:0: 3bf0d40e
StatefulPartitionedCall/efficientdet-d5/fpn_cell_4_fnode5_op_after_combine_2_conv/BiasAdd:0: 3b405246
StatefulPartitionedCall/efficientdet-d5/fpn_cell_4_fnode5_op_after_combine_2_bn/FusedBatchNormV3:0: 3d48037f
StatefulPartitionedCall/efficientdet-d5/max_pooling2d_20/MaxPool:0: 3d48037f
(Unnamed Layer* 1359) [Shuffle]_output: 38975fd1
StatefulPartitionedCall/efficientdet-d5/fusion_fpn_cell_5_fnode5/truediv:0: 39eaa21b
(Unnamed Layer* 1362) [Shuffle]_output: 3b63f417
StatefulPartitionedCall/efficientdet-d5/fusion_fpn_cell_5_fnode1/truediv:0: 3cb0aa90
(Unnamed Layer* 1365) [Shuffle]_output: 3c0105bb
StatefulPartitionedCall/efficientdet-d5/fusion_fpn_cell_4_fnode6/truediv_2:0: 3d5d714d
(Unnamed Layer* 1367) [ElementWise]_output: 3a5b7e8d
StatefulPartitionedCall/efficientdet-d5/fusion_fpn_cell_4_fnode6/AddN_1:0: 3d60cd57
StatefulPartitionedCall/efficientdet-d5/activation_38/Sigmoid:0: 3c02d553
StatefulPartitionedCall/efficientdet-d5/activation_38/mul_1:0: 3d4701c5
StatefulPartitionedCall/efficientdet-d5/fpn_cell_4_fnode6_op_after_combine_3_conv/separable_conv2d/depthwise:0: 3be9d224
StatefulPartitionedCall/efficientdet-d5/fpn_cell_4_fnode6_op_after_combine_3_conv/BiasAdd:0: 3b061c5e
StatefulPartitionedCall/efficientdet-d5/fpn_cell_4_fnode6_op_after_combine_3_bn/FusedBatchNormV3:0: 3d08e65c
StatefulPartitionedCall/efficientdet-d5/max_pooling2d_21/MaxPool:0: 3d08e65c
(Unnamed Layer* 1376) [Shuffle]_output: 38aff6a1
StatefulPartitionedCall/efficientdet-d5/fusion_fpn_cell_5_fnode6/truediv:0: 39baaea7
(Unnamed Layer* 1379) [Shuffle]_output: 3b5eb337
StatefulPartitionedCall/efficientdet-d5/fusion_fpn_cell_5_fnode0/truediv:0: 3c6c4411
(Unnamed Layer* 1382) [Shuffle]_output: 3b8e262e
StatefulPartitionedCall/efficientdet-d5/fusion_fpn_cell_4_fnode7/truediv_1:0: 3ca755cb
StatefulPartitionedCall/efficientdet-d5/fusion_fpn_cell_4_fnode7/AddN_1:0: 3cd2feb6
StatefulPartitionedCall/efficientdet-d5/activation_39/Sigmoid:0: 3bf74875
StatefulPartitionedCall/efficientdet-d5/activation_39/mul_1:0: 3cab2b50
StatefulPartitionedCall/efficientdet-d5/fpn_cell_4_fnode7_op_after_combine_4_conv/separable_conv2d/depthwise:0: 3b82f895
StatefulPartitionedCall/efficientdet-d5/fpn_cell_4_fnode7_op_after_combine_4_conv/BiasAdd:0: 3aa8ff2f
StatefulPartitionedCall/efficientdet-d5/fpn_cell_4_fnode7_op_after_combine_4_bn/FusedBatchNormV3:0: 3ce5b609
(Unnamed Layer* 1391) [Shuffle]_output: 3b242468
StatefulPartitionedCall/efficientdet-d5/fusion_fpn_cell_5_fnode7/truediv:0: 3c121995
Resize__2484:0: 3ce5d4c9
(Unnamed Layer* 1395) [Shuffle]_output: 3b92b42a
StatefulPartitionedCall/efficientdet-d5/fusion_fpn_cell_5_fnode0/truediv_1:0: 3c82a586
StatefulPartitionedCall/efficientdet-d5/fusion_fpn_cell_5_fnode0/AddN_1:0: 3cc0dbd1
StatefulPartitionedCall/efficientdet-d5/activation_40/Sigmoid:0: 3bf4a8cf
StatefulPartitionedCall/efficientdet-d5/activation_40/mul_1:0: 3c9a114c
StatefulPartitionedCall/efficientdet-d5/fpn_cell_5_fnode0_op_after_combine_3_conv/separable_conv2d/depthwise:0: 3b55c77d
StatefulPartitionedCall/efficientdet-d5/fpn_cell_5_fnode0_op_after_combine_3_conv/BiasAdd:0: 3a5e3ee0
StatefulPartitionedCall/efficientdet-d5/fpn_cell_5_fnode0_op_after_combine_3_bn/FusedBatchNormV3:0: 3cc864ba
(Unnamed Layer* 1404) [Shuffle]_output: 384ff576
StatefulPartitionedCall/efficientdet-d5/fusion_fpn_cell_5_fnode6/truediv_1:0: 392179ed
Resize__2503:0: 3cc864ba
(Unnamed Layer* 1408) [Shuffle]_output: 3b90144e
StatefulPartitionedCall/efficientdet-d5/fusion_fpn_cell_5_fnode1/truediv_1:0: 3c5fbffd
StatefulPartitionedCall/efficientdet-d5/fusion_fpn_cell_5_fnode1/AddN_1:0: 3cc22245
StatefulPartitionedCall/efficientdet-d5/activation_41/Sigmoid:0: 3bf6d79c
StatefulPartitionedCall/efficientdet-d5/activation_41/mul_1:0: 3c8ffaed
StatefulPartitionedCall/efficientdet-d5/fpn_cell_5_fnode1_op_after_combine_2_conv/separable_conv2d/depthwise:0: 3b54558b
StatefulPartitionedCall/efficientdet-d5/fpn_cell_5_fnode1_op_after_combine_2_conv/BiasAdd:0: 3a920998
StatefulPartitionedCall/efficientdet-d5/fpn_cell_5_fnode1_op_after_combine_2_bn/FusedBatchNormV3:0: 3ce73bbb
(Unnamed Layer* 1417) [Shuffle]_output: 38eb8d1e
StatefulPartitionedCall/efficientdet-d5/fusion_fpn_cell_5_fnode5/truediv_1:0: 39d30c95
Resize__2522:0: 3ce73bbb
(Unnamed Layer* 1421) [Shuffle]_output: 3b6e1e3c
StatefulPartitionedCall/efficientdet-d5/fusion_fpn_cell_5_fnode2/truediv_1:0: 3c555959
StatefulPartitionedCall/efficientdet-d5/fusion_fpn_cell_5_fnode2/AddN_1:0: 3d0cc320
StatefulPartitionedCall/efficientdet-d5/activation_42/Sigmoid:0: 3bfe0045
StatefulPartitionedCall/efficientdet-d5/activation_42/mul_1:0: 3cb1c1f1
StatefulPartitionedCall/efficientdet-d5/fpn_cell_5_fnode2_op_after_combine_1_conv/separable_conv2d/depthwise:0: 3b76c426
StatefulPartitionedCall/efficientdet-d5/fpn_cell_5_fnode2_op_after_combine_1_conv/BiasAdd:0: 3aaf5f04
StatefulPartitionedCall/efficientdet-d5/fpn_cell_5_fnode2_op_after_combine_1_bn/FusedBatchNormV3:0: 3d12661a
(Unnamed Layer* 1430) [Shuffle]_output: 3a1df1c2
StatefulPartitionedCall/efficientdet-d5/fusion_fpn_cell_5_fnode4/truediv_1:0: 3b33313f
Resize__2541:0: 3d12661a
(Unnamed Layer* 1434) [Shuffle]_output: 3b855e60
StatefulPartitionedCall/efficientdet-d5/fusion_fpn_cell_5_fnode3/truediv_1:0: 3c974f7f
StatefulPartitionedCall/efficientdet-d5/fusion_fpn_cell_5_fnode3/AddN_1:0: 3cf9737a
StatefulPartitionedCall/efficientdet-d5/activation_43/Sigmoid:0: 3bff1c12
StatefulPartitionedCall/efficientdet-d5/activation_43/mul_1:0: 3ca5881f
StatefulPartitionedCall/efficientdet-d5/fpn_cell_5_fnode3_op_after_combine_0_conv/separable_conv2d/depthwise:0: 3b96c5a1
StatefulPartitionedCall/efficientdet-d5/fpn_cell_5_fnode3_op_after_combine_0_conv/BiasAdd:0: 3ae05dc2
StatefulPartitionedCall/efficientdet-d5/fpn_cell_5_fnode3_op_after_combine_0_bn/FusedBatchNormV3:0: 3d26a86d
StatefulPartitionedCall/efficientdet-d5/max_pooling2d_22/MaxPool:0: 3d26a86d
(Unnamed Layer* 1444) [Shuffle]_output: 3b4bed4d
StatefulPartitionedCall/efficientdet-d5/fusion_fpn_cell_6_fnode3/truediv:0: 3c83b04b
(Unnamed Layer* 1447) [Shuffle]_output: 3bf5c7c1
StatefulPartitionedCall/efficientdet-d5/fusion_fpn_cell_5_fnode4/truediv_2:0: 3d4f8211
(Unnamed Layer* 1449) [ElementWise]_output: 3b426e4a
StatefulPartitionedCall/efficientdet-d5/fusion_fpn_cell_5_fnode4/AddN_1:0: 3d53e1e5
StatefulPartitionedCall/efficientdet-d5/activation_44/Sigmoid:0: 3c010e2b
StatefulPartitionedCall/efficientdet-d5/activation_44/mul_1:0: 3d3c8dd8
StatefulPartitionedCall/efficientdet-d5/fpn_cell_5_fnode4_op_after_combine_1_conv/separable_conv2d/depthwise:0: 3bceee63
StatefulPartitionedCall/efficientdet-d5/fpn_cell_5_fnode4_op_after_combine_1_conv/BiasAdd:0: 3b42cb3d
StatefulPartitionedCall/efficientdet-d5/fpn_cell_5_fnode4_op_after_combine_1_bn/FusedBatchNormV3:0: 3d6f4b6e
StatefulPartitionedCall/efficientdet-d5/max_pooling2d_23/MaxPool:0: 3d6f4b6e
(Unnamed Layer* 1458) [Shuffle]_output: 3988bb03
StatefulPartitionedCall/efficientdet-d5/fusion_fpn_cell_6_fnode4/truediv:0: 3afd8eaf
(Unnamed Layer* 1461) [Shuffle]_output: 3b5c53b7
StatefulPartitionedCall/efficientdet-d5/fusion_fpn_cell_6_fnode2/truediv:0: 3ccc4a69
(Unnamed Layer* 1464) [Shuffle]_output: 3c005d0c
StatefulPartitionedCall/efficientdet-d5/fusion_fpn_cell_5_fnode5/truediv_2:0: 3d96f472
(Unnamed Layer* 1466) [ElementWise]_output: 3a0d6bcd
StatefulPartitionedCall/efficientdet-d5/fusion_fpn_cell_5_fnode5/AddN_1:0: 3d91aedf
StatefulPartitionedCall/efficientdet-d5/activation_45/Sigmoid:0: 3c0532fb
StatefulPartitionedCall/efficientdet-d5/activation_45/mul_1:0: 3d8ea50d
StatefulPartitionedCall/efficientdet-d5/fpn_cell_5_fnode5_op_after_combine_2_conv/separable_conv2d/depthwise:0: 3c0b7849
StatefulPartitionedCall/efficientdet-d5/fpn_cell_5_fnode5_op_after_combine_2_conv/BiasAdd:0: 3b84f66d
StatefulPartitionedCall/efficientdet-d5/fpn_cell_5_fnode5_op_after_combine_2_bn/FusedBatchNormV3:0: 3d724550
StatefulPartitionedCall/efficientdet-d5/max_pooling2d_24/MaxPool:0: 3d724550
(Unnamed Layer* 1475) [Shuffle]_output: 388ad122
StatefulPartitionedCall/efficientdet-d5/fusion_fpn_cell_6_fnode5/truediv:0: 3a025065
(Unnamed Layer* 1478) [Shuffle]_output: 3b4966d5
StatefulPartitionedCall/efficientdet-d5/fusion_fpn_cell_6_fnode1/truediv:0: 3cbd10b8
(Unnamed Layer* 1481) [Shuffle]_output: 3bfdaa45
StatefulPartitionedCall/efficientdet-d5/fusion_fpn_cell_5_fnode6/truediv_2:0: 3d864690
(Unnamed Layer* 1483) [ElementWise]_output: 39c715f0
StatefulPartitionedCall/efficientdet-d5/fusion_fpn_cell_5_fnode6/AddN_1:0: 3d860145
StatefulPartitionedCall/efficientdet-d5/activation_46/Sigmoid:0: 3c01f883
StatefulPartitionedCall/efficientdet-d5/activation_46/mul_1:0: 3d6956d6
StatefulPartitionedCall/efficientdet-d5/fpn_cell_5_fnode6_op_after_combine_3_conv/separable_conv2d/depthwise:0: 3c0cfe33
StatefulPartitionedCall/efficientdet-d5/fpn_cell_5_fnode6_op_after_combine_3_conv/BiasAdd:0: 3b78c09c
StatefulPartitionedCall/efficientdet-d5/fpn_cell_5_fnode6_op_after_combine_3_bn/FusedBatchNormV3:0: 3d2a2d75
StatefulPartitionedCall/efficientdet-d5/max_pooling2d_25/MaxPool:0: 3d2a2d75
(Unnamed Layer* 1492) [Shuffle]_output: 38138782
StatefulPartitionedCall/efficientdet-d5/fusion_fpn_cell_6_fnode6/truediv:0: 39428fed
(Unnamed Layer* 1495) [Shuffle]_output: 3b413544
StatefulPartitionedCall/efficientdet-d5/fusion_fpn_cell_6_fnode0/truediv:0: 3c7ecdb0
(Unnamed Layer* 1498) [Shuffle]_output: 3baffb78
StatefulPartitionedCall/efficientdet-d5/fusion_fpn_cell_5_fnode7/truediv_1:0: 3d05780b
StatefulPartitionedCall/efficientdet-d5/fusion_fpn_cell_5_fnode7/AddN_1:0: 3d14b5f7
