TRT-8501-EntropyCalibration2
input_1:0: 3b810a14
block_1a_conv_1/convolution__95:0: 3b810a14
Conv__446:0: 3e01cebd
block_1a_relu/Relu:0: 3ddb2b7b
Conv__450:0: 3e2fdd96
block_1b_relu/Relu:0: 3dffddea
Conv__454:0: 3e430f6f
block_2a_relu/Relu:0: 3dc5dc1b
Conv__458:0: 3e0a16ed
block_2b_relu/Relu:0: 3dace20c
Conv__462:0: 3dc10898
block_3a_relu/Relu:0: 3d957ab2
Conv__466:0: 3dafe5c4
block_3b_relu/Relu:0: 3d8c41eb
Conv__470:0: 3dababd6
block_3c_relu/Relu:0: 3d8bed06
Conv__474:0: 3dee70b1
block_3d_relu/Relu:0: 3d92eca3
Conv__478:0: 3d8fe545
block_4a_relu/Relu:0: 3d888c1e
Conv__482:0: 3db5b458
block_4b_relu/Relu:0: 3d7ef22a
Conv__486:0: 3d759aad
block_6a_relu/Relu:0: 3d22b85a
Conv__490:0: 3defcd37
channel_reduction_conv/relu/Relu:0: 3d4bf865
Conv__506:0: 3d1247ff
stage1/conv1/relu/Relu:0: 3d121538
Conv__510:0: 3cfdc67e
stage1/conv2/relu/Relu:0: 3cd2cfbe
Conv__514:0: 3cd47e81
stage1/conv3/relu/Relu:0: 3ccdaa6d
Conv__542:0: 3c04b9ef
stage1/cmap/conv4/relu/Relu:0: 3c00533a
Conv__546:0: 3c014154
Conv__526:0: 3c5f9149
stage1/paf/conv4/relu/Relu:0: 3c10854c
Conv__530:0: 3b5269a5
concatenate_1/concat:0: 3cc0f4a3
Conv__550:0: 3d84accc
stage2/conv1/relu/Relu:0: 3d5a75f8
Conv__554:0: 3d859336
stage2/conv2/relu/Relu:0: 3d5b49b3
Conv__558:0: 3da63161
stage2/conv3/relu/Relu:0: 3d58d1e8
Conv__562:0: 3d955c55
stage2/conv4/relu/Relu:0: 3d471532
Conv__566:0: 3d08a6ad
stage2/conv5/relu/Relu:0: 3cfa27ac
Conv__594:0: 3c7a2b6e
stage2/cmap/conv6/relu/Relu:0: 3c65e1f8
Conv__598:0: 3c0140c4
Conv__578:0: 3ca9b646
stage2/paf/conv6/relu/Relu:0: 3c793d1a
Conv__582:0: 3b4b4c43
concatenate_2/concat:0: 3cc0f4a3
Conv__602:0: 3d220e50
stage3/conv1/relu/Relu:0: 3d03a8e5
Conv__606:0: 3d209571
stage3/conv2/relu/Relu:0: 3cfdd05f
Conv__610:0: 3d252b4f
stage3/conv3/relu/Relu:0: 3cec0232
Conv__614:0: 3cd5cbb4
stage3/conv4/relu/Relu:0: 3ca5e3d4
Conv__618:0: 3c940e7d
stage3/conv5/relu/Relu:0: 3c940e7d
Conv__650:0: 3c27f1b3
stage3/cmap/conv6/relu/Relu:0: 3beb34d8
Conv__654:0: 3c014891
heatmap_out/BiasAdd:0: 3c014891
Conv__630:0: 3c2eddc2
stage3/paf/conv6/relu/Relu:0: 3c10f4ce
Conv__634:0: 3b0e1607
conv2d_transpose_1/conv2d_transpose:0: 3b0e1607
Slice__438:0: 3b0e1607
(Unnamed Layer* 134) [Constant]_output: 0
conv2d_transpose_1/BiasAdd_raw_output___4:0: 3b0e1607
conv2d_transpose_1/BiasAdd:0: 3b0e1607
