TRT-7000-EntropyCalibration2
input_1: 3c010108
activation_1/Relu6: 3d41810e
block_1a_relu_1/Relu6: 3d41810e
block_1a_bn_2/batchnorm/add_1: 3e537355
block_1a_bn_shortcut/batchnorm/add_1: 3da2d787
add_1/add: 3e5021a5
block_1a_relu/Relu6: 3d41810e
block_1b_relu_1/Relu6: 3d41810e
block_1b_bn_2/batchnorm/add_1: 3e25dec6
add_2/add: 3e1e3a03
block_1b_relu/Relu6: 3d41810e
block_2a_relu_1/Relu6: 3d41810e
block_2a_bn_2/batchnorm/add_1: 3ddf4a8b
block_2a_bn_shortcut/batchnorm/add_1: 3d6451d8
add_3/add: 3de2d6e6
block_2a_relu/Relu6: 3d41810e
block_2b_relu_1/Relu6: 3d41810e
block_2b_bn_2/batchnorm/add_1: 3e1eb7ae
add_4/add: 3e18b9c7
block_2b_relu/Relu6: 3d41810e
block_3a_relu_1/Relu6: 3d41810e
block_3a_bn_2/batchnorm/add_1: 3df14878
block_3a_bn_shortcut/batchnorm/add_1: 3e143e72
add_5/add: 3e086e67
block_3a_relu/Relu6: 3d41810e
block_3b_relu_1/Relu6: 3d41810e
block_3b_bn_2/batchnorm/add_1: 3e56f975
add_6/add: 3e5260c8
block_3b_relu/Relu6: 3d41810e
block_4a_relu_1/Relu6: 3d41810e
block_4a_bn_2/batchnorm/add_1: 3de137f8
block_4a_bn_shortcut/batchnorm/add_1: 3da62e9f
add_7/add: 3e03e758
block_4a_relu/Relu6: 3d41810e
block_4b_relu_1/Relu6: 3d41810e
block_4b_bn_2/batchnorm/add_1: 3e951c05
add_8/add: 3e9bac98
block_4b_relu/Relu6: 3d41810e
