TRT-8205-EntropyCalibration2
input_2:0: 3c010a14
conv1/convolution:0: 3c961b34
conv1/Relu:0: 3c970cb2
maxpool1/Pad:0: 3c970cb2
maxpool1/MaxPool:0: 3c970cb2
stage2/block1/avg_pool/Pad:0: 3cdd1761
stage2/block1/avg_pool/AvgPool:0: 3e3f314d
stage2/block1/1x1_gconv_1/convolution:0: 3e080248
(Unnamed Layer* 15) [Constant]_output: 3c731d59
stage2/block1/bn_gconv_1/batchnorm/mul_1:0: 3e2cfda4
(Unnamed Layer* 17) [Constant]_output: 3bacaedf
stage2/block1/bn_gconv_1/batchnorm/add_1:0: 3e4dba4b
stage2/block1/relu_gconv_1/Relu:0: 3d69c860
channel_shuffle_1/transpose:0: 3d69c860
channel_shuffle_1/transpose_2:0: 3d69c860
stage2/block1/1x1_dwconv_1/depthwise:0: 3d6ec66a
(Unnamed Layer* 24) [Constant]_output: 3c453b1d
stage2/block1/bn_dwconv_1/batchnorm/mul_1:0: 3d71aaa1
(Unnamed Layer* 26) [Constant]_output: 3bb4ce51
stage2/block1/bn_dwconv_1/batchnorm/add_1:0: 3d4b8e6a
stage2/block1/1x1_gconv_2/convolution:0: 3de6edb2
(Unnamed Layer* 29) [Constant]_output: 3c710e6e
stage2/block1/bn_gconv_2/batchnorm/mul_1:0: 3e48ee60
(Unnamed Layer* 31) [Constant]_output: 3c20b7c8
stage2/block1/bn_gconv_2/batchnorm/add_1:0: 3e3f314d
stage2/block1/concat/concat:0: 3e3f314d
stage2/block1/relu_out/Relu:0: 3d6f6850
stage2/block2/1x1_gconv_1/convolution:0: 3dff5966
(Unnamed Layer* 36) [Constant]_output: 3c34f462
stage2/block2/bn_gconv_1/batchnorm/mul_1:0: 3e0b87d8
(Unnamed Layer* 38) [Constant]_output: 3cb3ff3d
stage2/block2/bn_gconv_1/batchnorm/add_1:0: 3e06a81f
stage2/block2/relu_gconv_1/Relu:0: 3e06e4ee
channel_shuffle_2/transpose:0: 3e06e4ee
channel_shuffle_2/transpose_2:0: 3e06e4ee
stage2/block2/1x1_dwconv_1/depthwise:0: 3d26c972
(Unnamed Layer* 45) [Constant]_output: 3c376823
stage2/block2/bn_dwconv_1/batchnorm/mul_1:0: 3d208c4a
(Unnamed Layer* 47) [Constant]_output: 3b9403e3
stage2/block2/bn_dwconv_1/batchnorm/add_1:0: 3d29a4d5
stage2/block2/1x1_gconv_2/convolution:0: 3d62a42c
(Unnamed Layer* 50) [Constant]_output: 3c80794b
stage2/block2/bn_gconv_2/batchnorm/mul_1:0: 3d7de450
(Unnamed Layer* 52) [Constant]_output: 3c028038
stage2/block2/bn_gconv_2/batchnorm/add_1:0: 3d821a70
stage2/block2/add/add:0: 3db3bf9e
stage2/block2/relu_out/Relu:0: 3d9d9bad
stage2/block3/1x1_gconv_1/convolution:0: 3e0420ea
(Unnamed Layer* 57) [Constant]_output: 3c27fb3e
stage2/block3/bn_gconv_1/batchnorm/mul_1:0: 3e16e029
(Unnamed Layer* 59) [Constant]_output: 3c6fd430
stage2/block3/bn_gconv_1/batchnorm/add_1:0: 3e10bcfa
stage2/block3/relu_gconv_1/Relu:0: 3e12cd7f
channel_shuffle_3/transpose:0: 3e12cd7f
channel_shuffle_3/transpose_2:0: 3e12cd7f
stage2/block3/1x1_dwconv_1/depthwise:0: 3d2fa732
(Unnamed Layer* 66) [Constant]_output: 3c167e90
stage2/block3/bn_dwconv_1/batchnorm/mul_1:0: 3d278a59
(Unnamed Layer* 68) [Constant]_output: 3bae6fd9
stage2/block3/bn_dwconv_1/batchnorm/add_1:0: 3cf34b22
stage2/block3/1x1_gconv_2/convolution:0: 3d558bb9
(Unnamed Layer* 71) [Constant]_output: 3c7eb070
stage2/block3/bn_gconv_2/batchnorm/mul_1:0: 3d9c80cb
(Unnamed Layer* 73) [Constant]_output: 3c2f8599
stage2/block3/bn_gconv_2/batchnorm/add_1:0: 3dc58b3a
stage2/block3/add/add:0: 3ddcd947
stage2/block3/relu_out/Relu:0: 3db81260
stage2/block4/1x1_gconv_1/convolution:0: 3e094baa
(Unnamed Layer* 78) [Constant]_output: 3c9ac3c7
stage2/block4/bn_gconv_1/batchnorm/mul_1:0: 3e7c461d
(Unnamed Layer* 80) [Constant]_output: 3cb37f09
stage2/block4/bn_gconv_1/batchnorm/add_1:0: 3e824f20
stage2/block4/relu_gconv_1/Relu:0: 3e82daa1
channel_shuffle_4/transpose:0: 3e82daa1
channel_shuffle_4/transpose_2:0: 3e82daa1
stage2/block4/1x1_dwconv_1/depthwise:0: 3dafeec5
(Unnamed Layer* 87) [Constant]_output: 3c2c186c
stage2/block4/bn_dwconv_1/batchnorm/mul_1:0: 3d78394a
(Unnamed Layer* 89) [Constant]_output: 3b81fb03
stage2/block4/bn_dwconv_1/batchnorm/add_1:0: 3d389b8b
stage2/block4/1x1_gconv_2/convolution:0: 3d9876d4
(Unnamed Layer* 92) [Constant]_output: 3c86680a
stage2/block4/bn_gconv_2/batchnorm/mul_1:0: 3daeed5a
(Unnamed Layer* 94) [Constant]_output: 3c5d5921
stage2/block4/bn_gconv_2/batchnorm/add_1:0: 3de866f1
stage2/block4/add/add:0: 3df8d5fa
stage2/block4/relu_out/Relu:0: 3dc8af10
stage3/block1/avg_pool/Pad:0: 3dc8af10
stage3/block1/avg_pool/AvgPool:0: 3dae25c3
stage3/block1/1x1_gconv_1/convolution:0: 3e0d16b7
(Unnamed Layer* 105) [Constant]_output: 3c234a8c
stage3/block1/bn_gconv_1/batchnorm/mul_1:0: 3e101704
(Unnamed Layer* 107) [Constant]_output: 3c8d8ffb
stage3/block1/bn_gconv_1/batchnorm/add_1:0: 3e0cf3ec
stage3/block1/relu_gconv_1/Relu:0: 3e0e3151
channel_shuffle_5/transpose:0: 3e0e3151
channel_shuffle_5/transpose_2:0: 3e0e3151
stage3/block1/1x1_dwconv_1/depthwise:0: 3d6005cc
(Unnamed Layer* 114) [Constant]_output: 3c007017
stage3/block1/bn_dwconv_1/batchnorm/mul_1:0: 3d55b653
(Unnamed Layer* 116) [Constant]_output: 3bad6bd8
stage3/block1/bn_dwconv_1/batchnorm/add_1:0: 3d0b182f
stage3/block1/1x1_gconv_2/convolution:0: 3dab6df7
(Unnamed Layer* 119) [Constant]_output: 3c2fbda9
stage3/block1/bn_gconv_2/batchnorm/mul_1:0: 3db55d54
(Unnamed Layer* 121) [Constant]_output: 3c03f52e
stage3/block1/bn_gconv_2/batchnorm/add_1:0: 3dae25c3
stage3/block1/concat/concat:0: 3dae25c3
stage3/block1/relu_out/Relu:0: 3da31721
stage3/block2/1x1_gconv_1/convolution:0: 3e50c01f
(Unnamed Layer* 126) [Constant]_output: 3c9508ce
stage3/block2/bn_gconv_1/batchnorm/mul_1:0: 3e3b2c6a
(Unnamed Layer* 128) [Constant]_output: 3c6aac1a
stage3/block2/bn_gconv_1/batchnorm/add_1:0: 3e39c8e7
stage3/block2/relu_gconv_1/Relu:0: 3e39c8e7
channel_shuffle_6/transpose:0: 3e39c8e7
channel_shuffle_6/transpose_2:0: 3e39c8e7
stage3/block2/1x1_dwconv_1/depthwise:0: 3daed28e
(Unnamed Layer* 135) [Constant]_output: 3c0776ed
stage3/block2/bn_dwconv_1/batchnorm/mul_1:0: 3d2cb30c
(Unnamed Layer* 137) [Constant]_output: 3bdb7fef
stage3/block2/bn_dwconv_1/batchnorm/add_1:0: 3d0f4f4b
stage3/block2/1x1_gconv_2/convolution:0: 3d50f47d
(Unnamed Layer* 140) [Constant]_output: 3c4bf334
stage3/block2/bn_gconv_2/batchnorm/mul_1:0: 3d6ef85a
(Unnamed Layer* 142) [Constant]_output: 3b88fe94
stage3/block2/bn_gconv_2/batchnorm/add_1:0: 3d74c6c4
stage3/block2/add/add:0: 3dac25d8
stage3/block2/relu_out/Relu:0: 3db4f431
stage3/block3/1x1_gconv_1/convolution:0: 3e553228
(Unnamed Layer* 147) [Constant]_output: 3c49c888
stage3/block3/bn_gconv_1/batchnorm/mul_1:0: 3e71595f
(Unnamed Layer* 149) [Constant]_output: 3c13dd31
stage3/block3/bn_gconv_1/batchnorm/add_1:0: 3e6cf9c1
stage3/block3/relu_gconv_1/Relu:0: 3e3cb1fe
channel_shuffle_7/transpose:0: 3e3cb1fe
channel_shuffle_7/transpose_2:0: 3e3cb1fe
stage3/block3/1x1_dwconv_1/depthwise:0: 3d7282cf
(Unnamed Layer* 156) [Constant]_output: 3bf7f157
stage3/block3/bn_dwconv_1/batchnorm/mul_1:0: 3d4df16f
(Unnamed Layer* 158) [Constant]_output: 3b8e4be9
stage3/block3/bn_dwconv_1/batchnorm/add_1:0: 3cc07a2a
stage3/block3/1x1_gconv_2/convolution:0: 3d5b70d4
(Unnamed Layer* 161) [Constant]_output: 3c452400
stage3/block3/bn_gconv_2/batchnorm/mul_1:0: 3d7b7761
(Unnamed Layer* 163) [Constant]_output: 3bdd6a42
stage3/block3/bn_gconv_2/batchnorm/add_1:0: 3d7cabe4
stage3/block3/add/add:0: 3dbe700f
stage3/block3/relu_out/Relu:0: 3dbe700f
stage3/block4/1x1_gconv_1/convolution:0: 3e8909e2
(Unnamed Layer* 168) [Constant]_output: 3c841f0b
stage3/block4/bn_gconv_1/batchnorm/mul_1:0: 3e977613
(Unnamed Layer* 170) [Constant]_output: 3c0e2f94
stage3/block4/bn_gconv_1/batchnorm/add_1:0: 3e965ce2
stage3/block4/relu_gconv_1/Relu:0: 3e48b12b
channel_shuffle_8/transpose:0: 3e48b12b
channel_shuffle_8/transpose_2:0: 3e48b12b
stage3/block4/1x1_dwconv_1/depthwise:0: 3d874d85
(Unnamed Layer* 177) [Constant]_output: 3bef87e8
stage3/block4/bn_dwconv_1/batchnorm/mul_1:0: 3d788998
(Unnamed Layer* 179) [Constant]_output: 3b7d179e
stage3/block4/bn_dwconv_1/batchnorm/add_1:0: 3d41a6ba
stage3/block4/1x1_gconv_2/convolution:0: 3d94b20e
(Unnamed Layer* 182) [Constant]_output: 3c35e789
stage3/block4/bn_gconv_2/batchnorm/mul_1:0: 3d8f1c27
(Unnamed Layer* 184) [Constant]_output: 3c0e2159
stage3/block4/bn_gconv_2/batchnorm/add_1:0: 3d8fc0be
stage3/block4/add/add:0: 3dc8bcff
stage3/block4/relu_out/Relu:0: 3de3537c
stage3/block5/1x1_gconv_1/convolution:0: 3e81ef31
(Unnamed Layer* 189) [Constant]_output: 3c116e47
stage3/block5/bn_gconv_1/batchnorm/mul_1:0: 3e62c2a3
(Unnamed Layer* 191) [Constant]_output: 3c255468
stage3/block5/bn_gconv_1/batchnorm/add_1:0: 3e681253
stage3/block5/relu_gconv_1/Relu:0: 3e6bffef
channel_shuffle_9/transpose:0: 3e6bffef
channel_shuffle_9/transpose_2:0: 3e6bffef
stage3/block5/1x1_dwconv_1/depthwise:0: 3d9e7dc3
(Unnamed Layer* 198) [Constant]_output: 3bf8704c
stage3/block5/bn_dwconv_1/batchnorm/mul_1:0: 3d82db67
(Unnamed Layer* 200) [Constant]_output: 3b98d891
stage3/block5/bn_dwconv_1/batchnorm/add_1:0: 3d257935
stage3/block5/1x1_gconv_2/convolution:0: 3da261b5
(Unnamed Layer* 203) [Constant]_output: 3c450e31
stage3/block5/bn_gconv_2/batchnorm/mul_1:0: 3db1532c
(Unnamed Layer* 205) [Constant]_output: 3be8cb52
stage3/block5/bn_gconv_2/batchnorm/add_1:0: 3db3ef35
stage3/block5/add/add:0: 3de8137f
stage3/block5/relu_out/Relu:0: 3e020f1d
stage3/block6/1x1_gconv_1/convolution:0: 3e986525
(Unnamed Layer* 210) [Constant]_output: 3c2e0803
stage3/block6/bn_gconv_1/batchnorm/mul_1:0: 3ea05f76
(Unnamed Layer* 212) [Constant]_output: 3bd4e122
stage3/block6/bn_gconv_1/batchnorm/add_1:0: 3e9e83ce
stage3/block6/relu_gconv_1/Relu:0: 3e8362b8
channel_shuffle_10/transpose:0: 3e8362b8
channel_shuffle_10/transpose_2:0: 3e8362b8
stage3/block6/1x1_dwconv_1/depthwise:0: 3dccb09e
(Unnamed Layer* 219) [Constant]_output: 3c1aa134
stage3/block6/bn_dwconv_1/batchnorm/mul_1:0: 3d89e1ae
(Unnamed Layer* 221) [Constant]_output: 3b926fe2
stage3/block6/bn_dwconv_1/batchnorm/add_1:0: 3d2bf73f
stage3/block6/1x1_gconv_2/convolution:0: 3daea11c
(Unnamed Layer* 224) [Constant]_output: 3c3b0770
stage3/block6/bn_gconv_2/batchnorm/mul_1:0: 3dba778d
(Unnamed Layer* 226) [Constant]_output: 3c1d0d48
stage3/block6/bn_gconv_2/batchnorm/add_1:0: 3dc2ed80
stage3/block6/add/add:0: 3e0a77a6
stage3/block6/relu_out/Relu:0: 3e1554d1
stage3/block7/1x1_gconv_1/convolution:0: 3e9f9b75
(Unnamed Layer* 231) [Constant]_output: 3c2364a5
stage3/block7/bn_gconv_1/batchnorm/mul_1:0: 3ead9399
(Unnamed Layer* 233) [Constant]_output: 3c84af33
stage3/block7/bn_gconv_1/batchnorm/add_1:0: 3eacbabc
stage3/block7/relu_gconv_1/Relu:0: 3e9b4ced
channel_shuffle_11/transpose:0: 3e9b4ced
channel_shuffle_11/transpose_2:0: 3e9b4ced
stage3/block7/1x1_dwconv_1/depthwise:0: 3ddc3458
(Unnamed Layer* 240) [Constant]_output: 3c0490d1
stage3/block7/bn_dwconv_1/batchnorm/mul_1:0: 3db8b5ed
(Unnamed Layer* 242) [Constant]_output: 3ba27090
stage3/block7/bn_dwconv_1/batchnorm/add_1:0: 3d7c5805
stage3/block7/1x1_gconv_2/convolution:0: 3dff819e
(Unnamed Layer* 245) [Constant]_output: 3c8dd520
stage3/block7/bn_gconv_2/batchnorm/mul_1:0: 3e1cfe58
(Unnamed Layer* 247) [Constant]_output: 3c888279
stage3/block7/bn_gconv_2/batchnorm/add_1:0: 3e28a28d
stage3/block7/add/add:0: 3e39ee1b
stage3/block7/relu_out/Relu:0: 3e39ee1b
stage3/block8/1x1_gconv_1/convolution:0: 3ee35d15
(Unnamed Layer* 252) [Constant]_output: 3c6f0890
stage3/block8/bn_gconv_1/batchnorm/mul_1:0: 3ee99922
(Unnamed Layer* 254) [Constant]_output: 3c339a64
stage3/block8/bn_gconv_1/batchnorm/add_1:0: 3ef164a4
stage3/block8/relu_gconv_1/Relu:0: 3ebc0644
channel_shuffle_12/transpose:0: 3ebc0644
channel_shuffle_12/transpose_2:0: 3ebc0644
stage3/block8/1x1_dwconv_1/depthwise:0: 3e112f90
(Unnamed Layer* 261) [Constant]_output: 3c07e730
stage3/block8/bn_dwconv_1/batchnorm/mul_1:0: 3df2a85a
(Unnamed Layer* 263) [Constant]_output: 3bcb14a7
stage3/block8/bn_dwconv_1/batchnorm/add_1:0: 3db20848
stage3/block8/1x1_gconv_2/convolution:0: 3e2da1e6
(Unnamed Layer* 266) [Constant]_output: 3c9a5872
stage3/block8/bn_gconv_2/batchnorm/mul_1:0: 3e74220c
(Unnamed Layer* 268) [Constant]_output: 3ca8b9d8
stage3/block8/bn_gconv_2/batchnorm/add_1:0: 3e7a78db
stage3/block8/add/add:0: 3e84f8d4
stage3/block8/relu_out/Relu:0: 3e6fdf73
stage4/block1/avg_pool/Pad:0: 3e6fdf73
stage4/block1/avg_pool/AvgPool:0: 3e81d5f8
stage4/block1/1x1_gconv_1/convolution:0: 3f11793d
(Unnamed Layer* 279) [Constant]_output: 3c11b50d
stage4/block1/bn_gconv_1/batchnorm/mul_1:0: 3f063c62
(Unnamed Layer* 281) [Constant]_output: 3c2a92db
stage4/block1/bn_gconv_1/batchnorm/add_1:0: 3f093ab3
stage4/block1/relu_gconv_1/Relu:0: 3ed1de47
channel_shuffle_13/transpose:0: 3ed1de47
channel_shuffle_13/transpose_2:0: 3ed1de47
stage4/block1/1x1_dwconv_1/depthwise:0: 3e21c360
(Unnamed Layer* 288) [Constant]_output: 3c09ebeb
stage4/block1/bn_dwconv_1/batchnorm/mul_1:0: 3e16fdd2
(Unnamed Layer* 290) [Constant]_output: 3bba74aa
stage4/block1/bn_dwconv_1/batchnorm/add_1:0: 3dfa90e5
stage4/block1/1x1_gconv_2/convolution:0: 3e7bc1bd
(Unnamed Layer* 293) [Constant]_output: 3c3933a9
stage4/block1/bn_gconv_2/batchnorm/mul_1:0: 3ead3c94
(Unnamed Layer* 295) [Constant]_output: 3bfce7e4
stage4/block1/bn_gconv_2/batchnorm/add_1:0: 3e81d5f8
stage4/block1/concat/concat:0: 3e81d5f8
stage4/block1/relu_out/Relu:0: 3e1c644e
stage4/block2/1x1_gconv_1/convolution:0: 3f0e4229
(Unnamed Layer* 300) [Constant]_output: 3c1ffce3
stage4/block2/bn_gconv_1/batchnorm/mul_1:0: 3f078424
(Unnamed Layer* 302) [Constant]_output: 3c0e9ea5
stage4/block2/bn_gconv_1/batchnorm/add_1:0: 3f07f058
stage4/block2/relu_gconv_1/Relu:0: 3ef4c922
channel_shuffle_14/transpose:0: 3ef4c922
channel_shuffle_14/transpose_2:0: 3ef4c922
stage4/block2/1x1_dwconv_1/depthwise:0: 3e3bdcdb
(Unnamed Layer* 309) [Constant]_output: 3c0ddc2c
stage4/block2/bn_dwconv_1/batchnorm/mul_1:0: 3e263252
(Unnamed Layer* 311) [Constant]_output: 3c154417
stage4/block2/bn_dwconv_1/batchnorm/add_1:0: 3e18c918
stage4/block2/1x1_gconv_2/convolution:0: 3e95cf2a
(Unnamed Layer* 314) [Constant]_output: 3c46d183
stage4/block2/bn_gconv_2/batchnorm/mul_1:0: 3ebdcfbe
(Unnamed Layer* 316) [Constant]_output: 3bf9706d
stage4/block2/bn_gconv_2/batchnorm/add_1:0: 3ebc618f
stage4/block2/add/add:0: 3ebbd72e
stage4/block2/relu_out/Relu:0: 3e87fde7
stage4/block3/1x1_gconv_1/convolution:0: 3f7edd54
(Unnamed Layer* 321) [Constant]_output: 3c247225
stage4/block3/bn_gconv_1/batchnorm/mul_1:0: 3f8d0ad5
(Unnamed Layer* 323) [Constant]_output: 3c3955cf
stage4/block3/bn_gconv_1/batchnorm/add_1:0: 3f8fe09b
stage4/block3/relu_gconv_1/Relu:0: 3f15cc8f
channel_shuffle_15/transpose:0: 3f15cc8f
channel_shuffle_15/transpose_2:0: 3f15cc8f
stage4/block3/1x1_dwconv_1/depthwise:0: 3e814563
(Unnamed Layer* 330) [Constant]_output: 3c183341
stage4/block3/bn_dwconv_1/batchnorm/mul_1:0: 3e85e69d
(Unnamed Layer* 332) [Constant]_output: 3c3b13cb
stage4/block3/bn_dwconv_1/batchnorm/add_1:0: 3e8e41da
stage4/block3/1x1_gconv_2/convolution:0: 3edce296
(Unnamed Layer* 335) [Constant]_output: 3c56f248
stage4/block3/bn_gconv_2/batchnorm/mul_1:0: 3f392f28
(Unnamed Layer* 337) [Constant]_output: 3c6a8903
stage4/block3/bn_gconv_2/batchnorm/add_1:0: 3f35e9c7
stage4/block3/add/add:0: 3f3c6cb4
stage4/block3/relu_out/Relu:0: 3eb81899
stage4/block4/1x1_gconv_1/convolution:0: 3f963dbf
(Unnamed Layer* 342) [Constant]_output: 3c4db8c8
stage4/block4/bn_gconv_1/batchnorm/mul_1:0: 3fd769a4
(Unnamed Layer* 344) [Constant]_output: 3d0c1b18
stage4/block4/bn_gconv_1/batchnorm/add_1:0: 3fd9a168
stage4/block4/relu_gconv_1/Relu:0: 3f87811e
channel_shuffle_16/transpose:0: 3f87811e
channel_shuffle_16/transpose_2:0: 3f87811e
stage4/block4/1x1_dwconv_1/depthwise:0: 3f01b8df
(Unnamed Layer* 351) [Constant]_output: 3c903f59
stage4/block4/bn_dwconv_1/batchnorm/mul_1:0: 3f15d129
(Unnamed Layer* 353) [Constant]_output: 3cf1fcd8
stage4/block4/bn_dwconv_1/batchnorm/add_1:0: 3ed4e3d1
stage4/block4/1x1_gconv_2/convolution:0: 3fd69357
(Unnamed Layer* 356) [Constant]_output: 3d303b6c
stage4/block4/bn_gconv_2/batchnorm/mul_1:0: 40b137bf
(Unnamed Layer* 358) [Constant]_output: 3d278426
stage4/block4/bn_gconv_2/batchnorm/add_1:0: 40ae494b
stage4/block4/add/add:0: 40af2c10
stage4/block4/relu_out/Relu:0: 3fde4a7f
score_fr/BiasAdd:0: 40b97952
conv2d_transpose_1/conv2d_transpose:0: 401603e3
conv2d_1/convolution:0: 3fa08da0
conv2d_2/convolution:0: 3e8a9f17
(Unnamed Layer* 366) [Constant]_output: 3b03ed7c
(Unnamed Layer* 367) [Shuffle]_output: 3b03ed7c
conv2d_2/BiasAdd:0: 3e910c2e
(Unnamed Layer* 369) [Constant]_output: 3bd9eb47
batch_normalization_4/batchnorm/mul_1:0: 3e6c07cf
(Unnamed Layer* 371) [Constant]_output: 3b6abab2
batch_normalization_4/batchnorm/add_1:0: 3e6baa8e
activation_2/Relu:0: 3e6baa8e
(Unnamed Layer* 374) [Constant]_output: 3b15075c
(Unnamed Layer* 375) [Shuffle]_output: 3b15075c
conv2d_1/BiasAdd:0: 3fa52cdc
(Unnamed Layer* 377) [Constant]_output: 3c2c8ab4
batch_normalization_2/batchnorm/mul_1:0: 3fc82208
(Unnamed Layer* 379) [Constant]_output: 3bb01e3d
batch_normalization_2/batchnorm/add_1:0: 3fc4590a
activation_1/Relu:0: 3fc333a0
(Unnamed Layer* 382) [Constant]_output: 3aa8dcbd
(Unnamed Layer* 383) [Shuffle]_output: 3aa8dcbd
conv2d_transpose_1/BiasAdd:0: 40156358
(Unnamed Layer* 385) [Constant]_output: 3bae9cbf
batch_normalization_1/batchnorm/mul_1:0: 3fbb7796
(Unnamed Layer* 387) [Constant]_output: 3b0b4273
batch_normalization_1/batchnorm/add_1:0: 3fbf4cbf
add_1/add:0: 400642fc
conv2d_transpose_2/conv2d_transpose:0: 3fa315a8
(Unnamed Layer* 391) [Constant]_output: 3aaac5e2
(Unnamed Layer* 392) [Shuffle]_output: 3aaac5e2
conv2d_transpose_2/BiasAdd:0: 3f9da49d
(Unnamed Layer* 394) [Constant]_output: 3bbecb98
batch_normalization_3/batchnorm/mul_1:0: 3f6c8256
(Unnamed Layer* 396) [Constant]_output: 3b0408b1
batch_normalization_3/batchnorm/add_1:0: 3f6a2d11
add_2/add:0: 3f6625ba
conv2d_transpose_3/conv2d_transpose:0: 3e851f6c
(Unnamed Layer* 400) [Constant]_output: 3bced5f9
(Unnamed Layer* 401) [Shuffle]_output: 3bced5f9
conv2d_transpose_3/BiasAdd:0: 3e85b78d
permute_1/transpose:0: 3e85b78d
(Unnamed Layer* 404) [TopK]_output_1: 3e8b4536
argmax_1: 3c010a14
