TRT-8401-EntropyCalibration2
input_1:0: 3c010a14
conv2d_1/convolution:0: 3c70b106
(Unnamed Layer* 2) [Shuffle]_output: 3b6a084e
conv2d_1/BiasAdd:0: 3c16e9c1
(Unnamed Layer* 4) [Constant]_output: 3d55bb2e
batch_normalization_1/batchnorm/mul_1:0: 3dd19678
(Unnamed Layer* 6) [Constant]_output: 3cc7a012
batch_normalization_1/batchnorm/add_1:0: 3e0a0778
activation_1/Relu:0: 3d2fd8c3
conv2d_2/convolution:0: 3d2d8332
(Unnamed Layer* 11) [Shuffle]_output: 3b17168d
conv2d_2/BiasAdd:0: 3c672ae1
(Unnamed Layer* 13) [Constant]_output: 3cd5c0ed
batch_normalization_2/batchnorm/mul_1:0: 3d726342
(Unnamed Layer* 15) [Constant]_output: 3bddc555
batch_normalization_2/batchnorm/add_1:0: 3d0063cd
activation_2/Relu:0: 3d63ed2d
max_pooling2d_1/MaxPool:0: 3d63ed2d
conv2d_3/convolution:0: 3d2eb6d5
(Unnamed Layer* 21) [Shuffle]_output: 3b2f7416
conv2d_3/BiasAdd:0: 3d3ef415
(Unnamed Layer* 23) [Constant]_output: 3cbbdf39
batch_normalization_3/batchnorm/mul_1:0: 3d3eaf19
(Unnamed Layer* 25) [Constant]_output: 3bfd6186
batch_normalization_3/batchnorm/add_1:0: 3d8dde94
activation_3/Relu:0: 3d49d8b2
conv2d_4/convolution:0: 3d0c5187
(Unnamed Layer* 30) [Shuffle]_output: 3b3b4c2f
conv2d_4/BiasAdd:0: 3ccb59c9
(Unnamed Layer* 32) [Constant]_output: 3d1b9980
batch_normalization_4/batchnorm/mul_1:0: 3d9d4b64
(Unnamed Layer* 34) [Constant]_output: 3c1df912
batch_normalization_4/batchnorm/add_1:0: 3d19ef76
activation_4/Relu:0: 3d677546
max_pooling2d_2/MaxPool:0: 3d677546
conv2d_5/convolution:0: 3d4898de
(Unnamed Layer* 40) [Shuffle]_output: 3afd310b
conv2d_5/BiasAdd:0: 3d0f235f
(Unnamed Layer* 42) [Constant]_output: 3cd5b207
batch_normalization_5/batchnorm/mul_1:0: 3da4a177
(Unnamed Layer* 44) [Constant]_output: 3bdd122e
batch_normalization_5/batchnorm/add_1:0: 3da89d67
activation_5/Relu:0: 3d84016d
conv2d_6/convolution:0: 3d480168
(Unnamed Layer* 49) [Shuffle]_output: 3b291a9e
conv2d_6/BiasAdd:0: 3cf9846b
(Unnamed Layer* 51) [Constant]_output: 3d214557
batch_normalization_6/batchnorm/mul_1:0: 3dc4846e
(Unnamed Layer* 53) [Constant]_output: 3c4987a2
batch_normalization_6/batchnorm/add_1:0: 3d88834a
activation_6/Relu:0: 3d998e04
max_pooling2d_3/MaxPool:0: 3d998e04
conv2d_7/convolution:0: 3d754dc7
(Unnamed Layer* 59) [Shuffle]_output: 3b4b3fe8
conv2d_7/BiasAdd:0: 3cd14a44
(Unnamed Layer* 61) [Constant]_output: 3d05d943
batch_normalization_7/batchnorm/mul_1:0: 3dd18f1b
(Unnamed Layer* 63) [Constant]_output: 3c25cc03
batch_normalization_7/batchnorm/add_1:0: 3da0a797
activation_7/Relu:0: 3dcd85e0
conv2d_8/convolution:0: 3db44090
(Unnamed Layer* 68) [Shuffle]_output: 3b2e1f42
conv2d_8/BiasAdd:0: 3d5dc193
(Unnamed Layer* 70) [Constant]_output: 3d13c6bb
batch_normalization_8/batchnorm/mul_1:0: 3e3b2815
(Unnamed Layer* 72) [Constant]_output: 3c2498c6
batch_normalization_8/batchnorm/add_1:0: 3e88d38f
activation_8/Relu:0: 3e2805b4
max_pooling2d_4/MaxPool:0: 3e2805b4
conv2d_9/convolution:0: 3dee3ea5
(Unnamed Layer* 78) [Shuffle]_output: 3b944a4e
conv2d_9/BiasAdd:0: 3d729660
(Unnamed Layer* 80) [Constant]_output: 3c019f46
batch_normalization_9/batchnorm/mul_1:0: 3e3a54c3
(Unnamed Layer* 82) [Constant]_output: 3c0f9b8f
batch_normalization_9/batchnorm/add_1:0: 3e819eb3
activation_9/Relu:0: 3ea075d3
conv2d_10/convolution:0: 3e1d3169
(Unnamed Layer* 87) [Shuffle]_output: 3bb43431
conv2d_10/BiasAdd:0: 3ddb82d4
(Unnamed Layer* 89) [Constant]_output: 3c0137d7
batch_normalization_10/batchnorm/mul_1:0: 3f3aa8a6
(Unnamed Layer* 91) [Constant]_output: 3cab1c6e
batch_normalization_10/batchnorm/add_1:0: 3f3cc950
activation_10/Relu:0: 3ee23bb6
max_pooling2d_5/MaxPool:0: 3ee23bb6
conv2d_11/convolution:0: 3e898edc
(Unnamed Layer* 97) [Shuffle]_output: 3ba96f8c
conv2d_11/BiasAdd:0: 3e073200
(Unnamed Layer* 99) [Constant]_output: 3d2df1bc
batch_normalization_11/batchnorm/mul_1:0: 3f5912c7
(Unnamed Layer* 101) [Constant]_output: 3cbe23f3
batch_normalization_11/batchnorm/add_1:0: 3f940355
activation_11/Relu:0: 3f8754ae
conv2d_12/convolution:0: 3efe6752
(Unnamed Layer* 106) [Shuffle]_output: 3b5ff1ee
conv2d_12/BiasAdd:0: 3e21049b
(Unnamed Layer* 108) [Constant]_output: 3c012fb3
batch_normalization_12/batchnorm/mul_1:0: 3fae29af
(Unnamed Layer* 110) [Constant]_output: 3bf40945
batch_normalization_12/batchnorm/add_1:0: 3f1fd836
activation_12/Relu:0: 3f88d2a4
conv2d_transpose_1/conv2d_transpose:0: 3e8d75e5
(Unnamed Layer* 115) [Shuffle]_output: 3afc3daf
conv2d_transpose_1/BiasAdd:0: 3dc90b41
concatenate_1/concat:0: 3ebeb9f2
(Unnamed Layer* 118) [Constant]_output: 3c017bee
batch_normalization_13/batchnorm/mul_1:0: 3faae4d3
(Unnamed Layer* 120) [Constant]_output: 3c17e495
batch_normalization_13/batchnorm/add_1:0: 3f2a6cec
activation_13/Relu:0: 3f22704d
conv2d_13/convolution:0: 3e967cdc
(Unnamed Layer* 125) [Shuffle]_output: 3ba74f87
conv2d_13/BiasAdd:0: 3e909a87
(Unnamed Layer* 127) [Constant]_output: 3da931e6
batch_normalization_14/batchnorm/mul_1:0: 3fd37dfb
(Unnamed Layer* 129) [Constant]_output: 3c87dcef
batch_normalization_14/batchnorm/add_1:0: 4026ca24
activation_14/Relu:0: 3eff6bfb
conv2d_14/convolution:0: 3e89aca6
(Unnamed Layer* 134) [Shuffle]_output: 3b28d597
conv2d_14/BiasAdd:0: 3dab30fb
(Unnamed Layer* 136) [Constant]_output: 3c018514
batch_normalization_15/batchnorm/mul_1:0: 3f691270
(Unnamed Layer* 138) [Constant]_output: 3c306e77
batch_normalization_15/batchnorm/add_1:0: 3e82d160
activation_15/Relu:0: 3f679c4f
conv2d_transpose_2/conv2d_transpose:0: 3e255ba6
(Unnamed Layer* 143) [Shuffle]_output: 3b0b8af1
conv2d_transpose_2/BiasAdd:0: 3d0aa5b5
concatenate_2/concat:0: 3da8d85a
(Unnamed Layer* 146) [Constant]_output: 3d123e32
batch_normalization_16/batchnorm/mul_1:0: 3e70ec35
(Unnamed Layer* 148) [Constant]_output: 3c25615c
batch_normalization_16/batchnorm/add_1:0: 3def6aca
activation_16/Relu:0: 3ebafdcd
conv2d_15/convolution:0: 3e5c0116
(Unnamed Layer* 153) [Shuffle]_output: 3b8ef716
conv2d_15/BiasAdd:0: 3e7fdc61
(Unnamed Layer* 155) [Constant]_output: 3e139f8b
batch_normalization_17/batchnorm/mul_1:0: 3f841373
(Unnamed Layer* 157) [Constant]_output: 3d5925f2
batch_normalization_17/batchnorm/add_1:0: 3f8bed4f
activation_17/Relu:0: 3eb3b9c2
conv2d_16/convolution:0: 3eaf9361
(Unnamed Layer* 162) [Shuffle]_output: 3bcd80dc
conv2d_16/BiasAdd:0: 3e9ff8ae
(Unnamed Layer* 164) [Constant]_output: 3dbf4a7c
batch_normalization_18/batchnorm/mul_1:0: 3fb45208
(Unnamed Layer* 166) [Constant]_output: 3d0bc881
batch_normalization_18/batchnorm/add_1:0: 3fc568d5
activation_18/Relu:0: 3f10f8da
conv2d_transpose_3/conv2d_transpose:0: 3dfe5a64
(Unnamed Layer* 171) [Shuffle]_output: 3b07f094
conv2d_transpose_3/BiasAdd:0: 3d29fb14
concatenate_3/concat:0: 3d88834a
(Unnamed Layer* 174) [Constant]_output: 3d429226
batch_normalization_19/batchnorm/mul_1:0: 3e6ac234
(Unnamed Layer* 176) [Constant]_output: 3c1b575a
batch_normalization_19/batchnorm/add_1:0: 3de86d05
activation_19/Relu:0: 3e68528f
conv2d_17/convolution:0: 3e536d80
(Unnamed Layer* 181) [Shuffle]_output: 3b8b404a
conv2d_17/BiasAdd:0: 3e4f2cf1
(Unnamed Layer* 183) [Constant]_output: 3e2efdfd
batch_normalization_20/batchnorm/mul_1:0: 3f8b1420
(Unnamed Layer* 185) [Constant]_output: 3d71b62c
batch_normalization_20/batchnorm/add_1:0: 3f93d032
activation_20/Relu:0: 3ecc89d1
conv2d_18/convolution:0: 3ed12fc7
(Unnamed Layer* 190) [Shuffle]_output: 3b46d129
conv2d_18/BiasAdd:0: 3ecf1023
(Unnamed Layer* 192) [Constant]_output: 3d98280e
batch_normalization_21/batchnorm/mul_1:0: 3ee6d0b8
(Unnamed Layer* 194) [Constant]_output: 3cf0cb93
batch_normalization_21/batchnorm/add_1:0: 3eeb3ea0
activation_21/Relu:0: 3f647964
conv2d_transpose_4/conv2d_transpose:0: 3e1943a9
(Unnamed Layer* 199) [Shuffle]_output: 3aa9ca89
conv2d_transpose_4/BiasAdd:0: 3d1874b4
concatenate_4/concat:0: 3d1874b4
(Unnamed Layer* 202) [Constant]_output: 3d64c1ba
batch_normalization_22/batchnorm/mul_1:0: 3e2264d6
(Unnamed Layer* 204) [Constant]_output: 3c72b223
batch_normalization_22/batchnorm/add_1:0: 3d93a167
activation_22/Relu:0: 3e48122e
conv2d_19/convolution:0: 3e593bdb
(Unnamed Layer* 209) [Shuffle]_output: 3b0fec8f
conv2d_19/BiasAdd:0: 3e0f44a8
(Unnamed Layer* 211) [Constant]_output: 3e4f6644
batch_normalization_23/batchnorm/mul_1:0: 3f0fdd86
(Unnamed Layer* 213) [Constant]_output: 3d046e27
batch_normalization_23/batchnorm/add_1:0: 3eb13b81
activation_23/Relu:0: 3ee7a8e0
conv2d_20/convolution:0: 3eaca58c
(Unnamed Layer* 218) [Shuffle]_output: 3b1b7f53
conv2d_20/BiasAdd:0: 3d9534a5
(Unnamed Layer* 220) [Constant]_output: 3e26d615
batch_normalization_24/batchnorm/mul_1:0: 3f6c5397
(Unnamed Layer* 222) [Constant]_output: 3c65a1d3
batch_normalization_24/batchnorm/add_1:0: 3f1b6b60
activation_24/Relu:0: 3ef38405
conv2d_transpose_5/conv2d_transpose:0: 3db6b2a1
(Unnamed Layer* 227) [Shuffle]_output: 3af79ad8
conv2d_transpose_5/BiasAdd:0: 3d788600
concatenate_5/concat:0: 3d788600
(Unnamed Layer* 230) [Constant]_output: 3de7374f
batch_normalization_25/batchnorm/mul_1:0: 3e598250
(Unnamed Layer* 232) [Constant]_output: 3cf93820
batch_normalization_25/batchnorm/add_1:0: 3e5c34c4
activation_25/Relu:0: 3e6eeba7
conv2d_21/convolution:0: 3e0fae8c
(Unnamed Layer* 237) [Shuffle]_output: 3a736fc8
conv2d_21/BiasAdd:0: 3d9ced7e
(Unnamed Layer* 239) [Constant]_output: 3e257177
batch_normalization_26/batchnorm/mul_1:0: 3ef8b05c
(Unnamed Layer* 241) [Constant]_output: 3b28aaa1
batch_normalization_26/batchnorm/add_1:0: 3e7d89b3
activation_26/Relu:0: 3ead953c
conv2d_22/convolution:0: 3e738673
(Unnamed Layer* 246) [Shuffle]_output: 3b2df76c
conv2d_22/BiasAdd:0: 3dd63026
(Unnamed Layer* 248) [Constant]_output: 3ca745d8
batch_normalization_27/batchnorm/mul_1:0: 3e4e2555
(Unnamed Layer* 250) [Constant]_output: 3bf0732e
batch_normalization_27/batchnorm/add_1:0: 3e50203b
activation_27/Relu:0: 3e8fe21f
conv2d_23/BiasAdd:0: 3e03fc63
permute_1/transpose:0: 3e03fc63
(Unnamed Layer* 255) [TopK]_output_1: 3e038d1a
argmax_1: 3c010a14
