TRT-8500-EntropyCalibration2
input: 3fddcead
preprocessor/transpose:0_0: 3fddcead
(Unnamed Layer* 1) [Constant]_output: 391094f9
preprocessor/scale:0_1: 3cf8860b
(Unnamed Layer* 3) [Constant]_output: 3c8bb257
preprocessor/mean:0_2: 3c9d8fe0
StatefulPartitionedCall/efficientdet-d5/stem_bn/FusedBatchNormV3:0: 3ca78d72
StatefulPartitionedCall/efficientdet-d5/stem_activation/Sigmoid:0: 3bf90204
StatefulPartitionedCall/efficientdet-d5/stem_activation/mul_1:0: 3ca65e50
StatefulPartitionedCall/efficientdet-d5/block1a_bn/FusedBatchNormV3:0: 3cd182b0
StatefulPartitionedCall/efficientdet-d5/block1a_activation/Sigmoid:0: 3bfc68d2
StatefulPartitionedCall/efficientdet-d5/block1a_activation/mul_1:0: 3d0177db
StatefulPartitionedCall/efficientdet-d5/block1a_se_squeeze/Mean:0: 3ce18fa7
StatefulPartitionedCall/efficientdet-d5/block1a_se_squeeze/Mean_Squeeze__5015:0: 3ce18fa7
StatefulPartitionedCall/efficientdet-d5/block1a_se_reduce/BiasAdd__121:0: 3ce18fa7
StatefulPartitionedCall/efficientdet-d5/block1a_se_reduce/BiasAdd:0: 3ce2a1b7
StatefulPartitionedCall/efficientdet-d5/block1a_se_reduce/Sigmoid:0: 3bfab14e
StatefulPartitionedCall/efficientdet-d5/block1a_se_reduce/mul_1:0: 3cdc09a8
StatefulPartitionedCall/efficientdet-d5/block1a_se_expand/BiasAdd:0: 3c8d4a16
StatefulPartitionedCall/efficientdet-d5/block1a_se_expand/Sigmoid:0: 3bbfb7c3
StatefulPartitionedCall/efficientdet-d5/block1a_se_excite/mul:0: 3cb54c53
StatefulPartitionedCall/efficientdet-d5/block1a_project_bn/FusedBatchNormV3:0: 3dff4758
StatefulPartitionedCall/efficientdet-d5/block1b_dwconv/depthwise:0: 3e8c1ba0
StatefulPartitionedCall/efficientdet-d5/block1b_bn/FusedBatchNormV3:0: 3d75c809
StatefulPartitionedCall/efficientdet-d5/block1b_activation/Sigmoid:0: 3c0078f2
StatefulPartitionedCall/efficientdet-d5/block1b_activation/mul_1:0: 3d4680fe
StatefulPartitionedCall/efficientdet-d5/block1b_se_squeeze/Mean:0: 3c864aef
StatefulPartitionedCall/efficientdet-d5/block1b_se_squeeze/Mean_Squeeze__4967:0: 3c864aef
StatefulPartitionedCall/efficientdet-d5/block1b_se_reduce/BiasAdd__153:0: 3c864aef
StatefulPartitionedCall/efficientdet-d5/block1b_se_reduce/BiasAdd:0: 3b9c4535
StatefulPartitionedCall/efficientdet-d5/block1b_se_reduce/Sigmoid:0: 3bccc999
StatefulPartitionedCall/efficientdet-d5/block1b_se_reduce/mul_1:0: 3b41866d
StatefulPartitionedCall/efficientdet-d5/block1b_se_expand/BiasAdd:0: 3b5ae730
StatefulPartitionedCall/efficientdet-d5/block1b_se_expand/Sigmoid:0: 3be0f650
StatefulPartitionedCall/efficientdet-d5/block1b_se_excite/mul:0: 3cd13850
StatefulPartitionedCall/efficientdet-d5/block1b_project_bn/FusedBatchNormV3:0: 3d1bce8d
StatefulPartitionedCall/efficientdet-d5/block1b_add/add:0: 3dda1662
StatefulPartitionedCall/efficientdet-d5/block1c_bn/FusedBatchNormV3:0: 3d117c9f
StatefulPartitionedCall/efficientdet-d5/block1c_activation/Sigmoid:0: 3c010a14
StatefulPartitionedCall/efficientdet-d5/block1c_activation/mul_1:0: 3d015be4
StatefulPartitionedCall/efficientdet-d5/block1c_se_squeeze/Mean:0: 3c858101
StatefulPartitionedCall/efficientdet-d5/block1c_se_squeeze/Mean_Squeeze__5009:0: 3c858101
StatefulPartitionedCall/efficientdet-d5/block1c_se_reduce/BiasAdd__185:0: 3c858101
StatefulPartitionedCall/efficientdet-d5/block1c_se_reduce/BiasAdd:0: 3c8a4474
StatefulPartitionedCall/efficientdet-d5/block1c_se_reduce/Sigmoid:0: 3be705d3
StatefulPartitionedCall/efficientdet-d5/block1c_se_reduce/mul_1:0: 3a7f677d
StatefulPartitionedCall/efficientdet-d5/block1c_se_expand/BiasAdd:0: 3bcfbe97
StatefulPartitionedCall/efficientdet-d5/block1c_se_expand/Sigmoid:0: 3b9154ff
StatefulPartitionedCall/efficientdet-d5/block1c_se_excite/mul:0: 3cbb68fe
StatefulPartitionedCall/efficientdet-d5/block1c_project_bn/FusedBatchNormV3:0: 3cbb70c4
StatefulPartitionedCall/efficientdet-d5/block1c_add/add:0: 3db3bf38
StatefulPartitionedCall/efficientdet-d5/block2a_expand_bn/FusedBatchNormV3:0: 3db0702a
StatefulPartitionedCall/efficientdet-d5/block2a_expand_activation/Sigmoid:0: 3c010a14
StatefulPartitionedCall/efficientdet-d5/block2a_expand_activation/mul_1:0: 3d6771f5
StatefulPartitionedCall/efficientdet-d5/block2a_bn/FusedBatchNormV3:0: 3e0b7c6b
StatefulPartitionedCall/efficientdet-d5/block2a_activation/Sigmoid:0: 3c010a14
StatefulPartitionedCall/efficientdet-d5/block2a_activation/mul_1:0: 3db5f96d
StatefulPartitionedCall/efficientdet-d5/block2a_se_squeeze/Mean:0: 3c99b2ef
StatefulPartitionedCall/efficientdet-d5/block2a_se_squeeze/Mean_Squeeze__4963:0: 3c99b2ef
StatefulPartitionedCall/efficientdet-d5/block2a_se_reduce/BiasAdd__229:0: 3c99b2ef
StatefulPartitionedCall/efficientdet-d5/block2a_se_reduce/BiasAdd:0: 3d10316e
StatefulPartitionedCall/efficientdet-d5/block2a_se_reduce/Sigmoid:0: 3c09cbcc
StatefulPartitionedCall/efficientdet-d5/block2a_se_reduce/mul_1:0: 3d0cf63e
StatefulPartitionedCall/efficientdet-d5/block2a_se_expand/BiasAdd:0: 3c5b46b4
StatefulPartitionedCall/efficientdet-d5/block2a_se_expand/Sigmoid:0: 3bbea01a
StatefulPartitionedCall/efficientdet-d5/block2a_se_excite/mul:0: 3d086087
StatefulPartitionedCall/efficientdet-d5/block2a_project_bn/FusedBatchNormV3:0: 3de0b2ca
StatefulPartitionedCall/efficientdet-d5/block2b_expand_conv/Conv2D:0: 3d3f0b33
StatefulPartitionedCall/efficientdet-d5/block2b_expand_bn/FusedBatchNormV3:0: 3d8db641
StatefulPartitionedCall/efficientdet-d5/block2b_expand_activation/Sigmoid:0: 3c051a31
StatefulPartitionedCall/efficientdet-d5/block2b_expand_activation/mul_1:0: 3d8db04a
StatefulPartitionedCall/efficientdet-d5/block2b_bn/FusedBatchNormV3:0: 3ddabe6b
StatefulPartitionedCall/efficientdet-d5/block2b_activation/Sigmoid:0: 3c010a14
StatefulPartitionedCall/efficientdet-d5/block2b_activation/mul_1:0: 3d95afa7
StatefulPartitionedCall/efficientdet-d5/block2b_se_squeeze/Mean:0: 3c0004f3
StatefulPartitionedCall/efficientdet-d5/block2b_se_squeeze/Mean_Squeeze__4955:0: 3c0004f3
StatefulPartitionedCall/efficientdet-d5/block2b_se_reduce/BiasAdd__273:0: 3c0004f3
StatefulPartitionedCall/efficientdet-d5/block2b_se_reduce/BiasAdd:0: 3c69e3d1
StatefulPartitionedCall/efficientdet-d5/block2b_se_reduce/Sigmoid:0: 3bde6eb0
StatefulPartitionedCall/efficientdet-d5/block2b_se_reduce/mul_1:0: 3c4a4699
StatefulPartitionedCall/efficientdet-d5/block2b_se_expand/BiasAdd:0: 3b2f62a0
StatefulPartitionedCall/efficientdet-d5/block2b_se_expand/Sigmoid:0: 3b901e8a
StatefulPartitionedCall/efficientdet-d5/block2b_se_excite/mul:0: 3d17ea43
StatefulPartitionedCall/efficientdet-d5/block2b_project_bn/FusedBatchNormV3:0: 3d515e5c
StatefulPartitionedCall/efficientdet-d5/block2b_add/add:0: 3de597cc
StatefulPartitionedCall/efficientdet-d5/block2c_expand_bn/FusedBatchNormV3:0: 3d70f607
StatefulPartitionedCall/efficientdet-d5/block2c_expand_activation/Sigmoid:0: 3c03161b
StatefulPartitionedCall/efficientdet-d5/block2c_expand_activation/mul_1:0: 3d4252b6
StatefulPartitionedCall/efficientdet-d5/block2c_bn/FusedBatchNormV3:0: 3db64041
StatefulPartitionedCall/efficientdet-d5/block2c_activation/Sigmoid:0: 3c010a14
StatefulPartitionedCall/efficientdet-d5/block2c_activation/mul_1:0: 3d4229f1
StatefulPartitionedCall/efficientdet-d5/block2c_se_squeeze/Mean:0: 3bc3fa31
StatefulPartitionedCall/efficientdet-d5/block2c_se_squeeze/Mean_Squeeze__4983:0: 3bc3fa31
StatefulPartitionedCall/efficientdet-d5/block2c_se_reduce/BiasAdd__317:0: 3bc3fa31
StatefulPartitionedCall/efficientdet-d5/block2c_se_reduce/BiasAdd:0: 3bddc508
StatefulPartitionedCall/efficientdet-d5/block2c_se_reduce/Sigmoid:0: 3bb5c9e2
StatefulPartitionedCall/efficientdet-d5/block2c_se_reduce/mul_1:0: 3ba52c88
StatefulPartitionedCall/efficientdet-d5/block2c_se_expand/BiasAdd:0: 3ade8b3d
StatefulPartitionedCall/efficientdet-d5/block2c_se_expand/Sigmoid:0: 3b8ad0c3
StatefulPartitionedCall/efficientdet-d5/block2c_se_excite/mul:0: 3d0de22c
StatefulPartitionedCall/efficientdet-d5/block2c_project_bn/FusedBatchNormV3:0: 3d258e75
StatefulPartitionedCall/efficientdet-d5/block2c_add/add:0: 3df1bee9
StatefulPartitionedCall/efficientdet-d5/block2d_expand_bn/FusedBatchNormV3:0: 3d9d706c
StatefulPartitionedCall/efficientdet-d5/block2d_expand_activation/Sigmoid:0: 3c01b35f
StatefulPartitionedCall/efficientdet-d5/block2d_expand_activation/mul_1:0: 3d3f94df
StatefulPartitionedCall/efficientdet-d5/block2d_bn/FusedBatchNormV3:0: 3da62a15
StatefulPartitionedCall/efficientdet-d5/block2d_activation/Sigmoid:0: 3c010a14
StatefulPartitionedCall/efficientdet-d5/block2d_activation/mul_1:0: 3d96d429
StatefulPartitionedCall/efficientdet-d5/block2d_se_squeeze/Mean:0: 3babb562
StatefulPartitionedCall/efficientdet-d5/block2d_se_squeeze/Mean_Squeeze__4995:0: 3babb562
StatefulPartitionedCall/efficientdet-d5/block2d_se_reduce/BiasAdd__361:0: 3babb562
StatefulPartitionedCall/efficientdet-d5/block2d_se_reduce/BiasAdd:0: 3bcef6e7
StatefulPartitionedCall/efficientdet-d5/block2d_se_reduce/Sigmoid:0: 3bb1bd7c
StatefulPartitionedCall/efficientdet-d5/block2d_se_reduce/mul_1:0: 3b8db354
StatefulPartitionedCall/efficientdet-d5/block2d_se_expand/BiasAdd:0: 3b3703c2
StatefulPartitionedCall/efficientdet-d5/block2d_se_expand/Sigmoid:0: 3bb487d1
StatefulPartitionedCall/efficientdet-d5/block2d_se_excite/mul:0: 3d08feee
StatefulPartitionedCall/efficientdet-d5/block2d_project_bn/FusedBatchNormV3:0: 3d1630c4
StatefulPartitionedCall/efficientdet-d5/block2d_add/add:0: 3df012ee
StatefulPartitionedCall/efficientdet-d5/block2e_expand_bn/FusedBatchNormV3:0: 3d901594
StatefulPartitionedCall/efficientdet-d5/block2e_expand_activation/Sigmoid:0: 3c009102
StatefulPartitionedCall/efficientdet-d5/block2e_expand_activation/mul_1:0: 3d1092fb
StatefulPartitionedCall/efficientdet-d5/block2e_bn/FusedBatchNormV3:0: 3d95bf16
StatefulPartitionedCall/efficientdet-d5/block2e_activation/Sigmoid:0: 3c010a14
StatefulPartitionedCall/efficientdet-d5/block2e_activation/mul_1:0: 3d4544a9
StatefulPartitionedCall/efficientdet-d5/block2e_se_squeeze/Mean:0: 3b7a9de3
StatefulPartitionedCall/efficientdet-d5/block2e_se_squeeze/Mean_Squeeze__5027:0: 3b7a9de3
StatefulPartitionedCall/efficientdet-d5/block2e_se_reduce/BiasAdd__405:0: 3b7a9de3
StatefulPartitionedCall/efficientdet-d5/block2e_se_reduce/BiasAdd:0: 39daf92e
StatefulPartitionedCall/efficientdet-d5/block2e_se_reduce/Sigmoid:0: 3b8ae67c
StatefulPartitionedCall/efficientdet-d5/block2e_se_reduce/mul_1:0: 3ab789d9
StatefulPartitionedCall/efficientdet-d5/block2e_se_expand/BiasAdd:0: 3afd5df6
StatefulPartitionedCall/efficientdet-d5/block2e_se_expand/Sigmoid:0: 3b9c8c0b
StatefulPartitionedCall/efficientdet-d5/block2e_se_excite/mul:0: 3ccc5411
StatefulPartitionedCall/efficientdet-d5/block2e_project_bn/FusedBatchNormV3:0: 3d1f92db
StatefulPartitionedCall/efficientdet-d5/block2e_add/add:0: 3e049a83
StatefulPartitionedCall/efficientdet-d5/block3a_expand_bn/FusedBatchNormV3:0: 3d765341
StatefulPartitionedCall/efficientdet-d5/block3a_expand_activation/Sigmoid:0: 3c00e9d4
StatefulPartitionedCall/efficientdet-d5/block3a_expand_activation/mul_1:0: 3d460e69
StatefulPartitionedCall/efficientdet-d5/block3a_bn/FusedBatchNormV3:0: 3de10c6d
StatefulPartitionedCall/efficientdet-d5/block3a_activation/Sigmoid:0: 3c010a14
StatefulPartitionedCall/efficientdet-d5/block3a_activation/mul_1:0: 3d932c82
StatefulPartitionedCall/efficientdet-d5/block3a_se_squeeze/Mean:0: 3cae731d
StatefulPartitionedCall/efficientdet-d5/block3a_se_squeeze/Mean_Squeeze__4981:0: 3cae731d
StatefulPartitionedCall/efficientdet-d5/block3a_se_reduce/BiasAdd__449:0: 3cae731d
StatefulPartitionedCall/efficientdet-d5/block3a_se_reduce/BiasAdd:0: 3d0e45da
StatefulPartitionedCall/efficientdet-d5/block3a_se_reduce/Sigmoid:0: 3bfefaf4
StatefulPartitionedCall/efficientdet-d5/block3a_se_reduce/mul_1:0: 3d0c4a50
StatefulPartitionedCall/efficientdet-d5/block3a_se_expand/BiasAdd:0: 3cf2b3d0
StatefulPartitionedCall/efficientdet-d5/block3a_se_expand/Sigmoid:0: 3bd213b7
StatefulPartitionedCall/efficientdet-d5/block3a_se_excite/mul:0: 3d0388cf
StatefulPartitionedCall/efficientdet-d5/block3a_project_bn/FusedBatchNormV3:0: 3dd8e063
StatefulPartitionedCall/efficientdet-d5/block3b_expand_conv/Conv2D:0: 3d1b2a25
StatefulPartitionedCall/efficientdet-d5/block3b_expand_bn/FusedBatchNormV3:0: 3d549955
StatefulPartitionedCall/efficientdet-d5/block3b_expand_activation/Sigmoid:0: 3c00f121
StatefulPartitionedCall/efficientdet-d5/block3b_expand_activation/mul_1:0: 3d2589a4
StatefulPartitionedCall/efficientdet-d5/block3b_bn/FusedBatchNormV3:0: 3d971fb1
StatefulPartitionedCall/efficientdet-d5/block3b_activation/Sigmoid:0: 3c010a14
StatefulPartitionedCall/efficientdet-d5/block3b_activation/mul_1:0: 3d707e7b
StatefulPartitionedCall/efficientdet-d5/block3b_se_squeeze/Mean:0: 3bd12f13
StatefulPartitionedCall/efficientdet-d5/block3b_se_squeeze/Mean_Squeeze__5003:0: 3bd12f13
StatefulPartitionedCall/efficientdet-d5/block3b_se_reduce/BiasAdd__493:0: 3bd12f13
StatefulPartitionedCall/efficientdet-d5/block3b_se_reduce/BiasAdd:0: 3b3a472f
StatefulPartitionedCall/efficientdet-d5/block3b_se_reduce/Sigmoid:0: 3be4c24f
StatefulPartitionedCall/efficientdet-d5/block3b_se_reduce/mul_1:0: 3ae4f47c
StatefulPartitionedCall/efficientdet-d5/block3b_se_expand/BiasAdd:0: 3b0452e2
StatefulPartitionedCall/efficientdet-d5/block3b_se_expand/Sigmoid:0: 3b991f07
StatefulPartitionedCall/efficientdet-d5/block3b_se_excite/mul:0: 3cbac3a0
StatefulPartitionedCall/efficientdet-d5/block3b_project_bn/FusedBatchNormV3:0: 3d2c9b7a
StatefulPartitionedCall/efficientdet-d5/block3b_add/add:0: 3e0305db
StatefulPartitionedCall/efficientdet-d5/block3c_expand_bn/FusedBatchNormV3:0: 3d71d9d0
StatefulPartitionedCall/efficientdet-d5/block3c_expand_activation/Sigmoid:0: 3c0c88e5
StatefulPartitionedCall/efficientdet-d5/block3c_expand_activation/mul_1:0: 3d27f799
StatefulPartitionedCall/efficientdet-d5/block3c_bn/FusedBatchNormV3:0: 3d8c2da0
StatefulPartitionedCall/efficientdet-d5/block3c_activation/Sigmoid:0: 3c0d2a54
StatefulPartitionedCall/efficientdet-d5/block3c_activation/mul_1:0: 3d70b1ee
StatefulPartitionedCall/efficientdet-d5/block3c_se_squeeze/Mean:0: 3b96ab32
StatefulPartitionedCall/efficientdet-d5/block3c_se_squeeze/Mean_Squeeze__4977:0: 3b96ab32
StatefulPartitionedCall/efficientdet-d5/block3c_se_reduce/BiasAdd__537:0: 3b96ab32
StatefulPartitionedCall/efficientdet-d5/block3c_se_reduce/BiasAdd:0: 3b626119
StatefulPartitionedCall/efficientdet-d5/block3c_se_reduce/Sigmoid:0: 3ba0b898
StatefulPartitionedCall/efficientdet-d5/block3c_se_reduce/mul_1:0: 39ea58bb
StatefulPartitionedCall/efficientdet-d5/block3c_se_expand/BiasAdd:0: 3aaf5377
StatefulPartitionedCall/efficientdet-d5/block3c_se_expand/Sigmoid:0: 3b95571d
StatefulPartitionedCall/efficientdet-d5/block3c_se_excite/mul:0: 3cefeffa
StatefulPartitionedCall/efficientdet-d5/block3c_project_bn/FusedBatchNormV3:0: 3d124358
StatefulPartitionedCall/efficientdet-d5/block3c_add/add:0: 3e18931d
StatefulPartitionedCall/efficientdet-d5/block3d_expand_bn/FusedBatchNormV3:0: 3d783299
StatefulPartitionedCall/efficientdet-d5/block3d_expand_activation/Sigmoid:0: 3c0880c9
StatefulPartitionedCall/efficientdet-d5/block3d_expand_activation/mul_1:0: 3d00b717
StatefulPartitionedCall/efficientdet-d5/block3d_bn/FusedBatchNormV3:0: 3d8cc8a2
StatefulPartitionedCall/efficientdet-d5/block3d_activation/Sigmoid:0: 3c010a14
StatefulPartitionedCall/efficientdet-d5/block3d_activation/mul_1:0: 3d2b5515
StatefulPartitionedCall/efficientdet-d5/block3d_se_squeeze/Mean:0: 3b9faeed
StatefulPartitionedCall/efficientdet-d5/block3d_se_squeeze/Mean_Squeeze__4957:0: 3b9faeed
StatefulPartitionedCall/efficientdet-d5/block3d_se_reduce/BiasAdd__581:0: 3b9faeed
StatefulPartitionedCall/efficientdet-d5/block3d_se_reduce/BiasAdd:0: 3ae0583d
StatefulPartitionedCall/efficientdet-d5/block3d_se_reduce/Sigmoid:0: 3bf33816
StatefulPartitionedCall/efficientdet-d5/block3d_se_reduce/mul_1:0: 3a77ad20
StatefulPartitionedCall/efficientdet-d5/block3d_se_expand/BiasAdd:0: 3a7a7ba7
StatefulPartitionedCall/efficientdet-d5/block3d_se_expand/Sigmoid:0: 3b9e74a1
StatefulPartitionedCall/efficientdet-d5/block3d_se_excite/mul:0: 3cc66aad
StatefulPartitionedCall/efficientdet-d5/block3d_project_bn/FusedBatchNormV3:0: 3cfd1a26
StatefulPartitionedCall/efficientdet-d5/block3d_add/add:0: 3e102bb1
StatefulPartitionedCall/efficientdet-d5/block3e_expand_bn/FusedBatchNormV3:0: 3d783897
StatefulPartitionedCall/efficientdet-d5/block3e_expand_activation/Sigmoid:0: 3c00d16b
StatefulPartitionedCall/efficientdet-d5/block3e_expand_activation/mul_1:0: 3d0035af
StatefulPartitionedCall/efficientdet-d5/block3e_bn/FusedBatchNormV3:0: 3d9e1705
StatefulPartitionedCall/efficientdet-d5/block3e_activation/Sigmoid:0: 3c0880fe
StatefulPartitionedCall/efficientdet-d5/block3e_activation/mul_1:0: 3d28aa50
StatefulPartitionedCall/efficientdet-d5/block3e_se_squeeze/Mean:0: 3bad32bd
StatefulPartitionedCall/efficientdet-d5/block3e_se_squeeze/Mean_Squeeze__4997:0: 3bad32bd
StatefulPartitionedCall/efficientdet-d5/block3e_se_reduce/BiasAdd__625:0: 3bad32bd
StatefulPartitionedCall/efficientdet-d5/block3e_se_reduce/BiasAdd:0: 3b2abdca
StatefulPartitionedCall/efficientdet-d5/block3e_se_reduce/Sigmoid:0: 3b9701a7
StatefulPartitionedCall/efficientdet-d5/block3e_se_reduce/mul_1:0: 3ad7cc2c
StatefulPartitionedCall/efficientdet-d5/block3e_se_expand/BiasAdd:0: 3aadef6c
StatefulPartitionedCall/efficientdet-d5/block3e_se_expand/Sigmoid:0: 3b8a4d01
StatefulPartitionedCall/efficientdet-d5/block3e_se_excite/mul:0: 3cc3fcc3
StatefulPartitionedCall/efficientdet-d5/block3e_project_bn/FusedBatchNormV3:0: 3d190df2
StatefulPartitionedCall/efficientdet-d5/block3e_add/add:0: 3e0676f4
StatefulPartitionedCall/efficientdet-d5/fpn_cell_0_fnode3resample_0_0_bn/FusedBatchNormV3:0: 3d8dbe2e
StatefulPartitionedCall/efficientdet-d5/block4a_expand_bn/FusedBatchNormV3:0: 3d99f4e5
(Unnamed Layer* 262) [Shuffle]_output: 3b784930
StatefulPartitionedCall/efficientdet-d5/fusion_fpn_cell_0_fnode3/truediv:0: 3d085d4c
StatefulPartitionedCall/efficientdet-d5/block4a_expand_activation/Sigmoid:0: 3c03161d
StatefulPartitionedCall/efficientdet-d5/block4a_expand_activation/mul_1:0: 3d130501
StatefulPartitionedCall/efficientdet-d5/block4a_bn/FusedBatchNormV3:0: 3dd9dc60
StatefulPartitionedCall/efficientdet-d5/block4a_activation/Sigmoid:0: 3c010a14
StatefulPartitionedCall/efficientdet-d5/block4a_activation/mul_1:0: 3d9469b1
StatefulPartitionedCall/efficientdet-d5/block4a_se_squeeze/Mean:0: 3c9844ef
StatefulPartitionedCall/efficientdet-d5/block4a_se_squeeze/Mean_Squeeze__4971:0: 3c9844ef
StatefulPartitionedCall/efficientdet-d5/block4a_se_reduce/BiasAdd__681:0: 3c9844ef
StatefulPartitionedCall/efficientdet-d5/block4a_se_reduce/BiasAdd:0: 3cf95d6f
StatefulPartitionedCall/efficientdet-d5/block4a_se_reduce/Sigmoid:0: 3bfcc863
StatefulPartitionedCall/efficientdet-d5/block4a_se_reduce/mul_1:0: 3cf2ed2c
StatefulPartitionedCall/efficientdet-d5/block4a_se_expand/BiasAdd:0: 3d1ae625
StatefulPartitionedCall/efficientdet-d5/block4a_se_expand/Sigmoid:0: 3bdfa13e
StatefulPartitionedCall/efficientdet-d5/block4a_se_excite/mul:0: 3cdc9b34
StatefulPartitionedCall/efficientdet-d5/block4a_project_bn/FusedBatchNormV3:0: 3e05192a
StatefulPartitionedCall/efficientdet-d5/block4b_expand_conv/Conv2D:0: 3d16f8c5
StatefulPartitionedCall/efficientdet-d5/block4b_expand_bn/FusedBatchNormV3:0: 3d8a81b2
StatefulPartitionedCall/efficientdet-d5/block4b_expand_activation/Sigmoid:0: 3c02135b
StatefulPartitionedCall/efficientdet-d5/block4b_expand_activation/mul_1:0: 3d25331f
StatefulPartitionedCall/efficientdet-d5/block4b_bn/FusedBatchNormV3:0: 3d8ee620
StatefulPartitionedCall/efficientdet-d5/block4b_activation/Sigmoid:0: 3c0d2a2e
StatefulPartitionedCall/efficientdet-d5/block4b_activation/mul_1:0: 3d0ff3b6
StatefulPartitionedCall/efficientdet-d5/block4b_se_squeeze/Mean:0: 3be16ca9
StatefulPartitionedCall/efficientdet-d5/block4b_se_squeeze/Mean_Squeeze__4987:0: 3be16ca9
StatefulPartitionedCall/efficientdet-d5/block4b_se_reduce/BiasAdd__725:0: 3be16ca9
StatefulPartitionedCall/efficientdet-d5/block4b_se_reduce/BiasAdd:0: 3b356fa9
StatefulPartitionedCall/efficientdet-d5/block4b_se_reduce/Sigmoid:0: 3b9a5b9c
StatefulPartitionedCall/efficientdet-d5/block4b_se_reduce/mul_1:0: 3ad54e88
StatefulPartitionedCall/efficientdet-d5/block4b_se_expand/BiasAdd:0: 3a8b9dd7
StatefulPartitionedCall/efficientdet-d5/block4b_se_expand/Sigmoid:0: 3b972c27
StatefulPartitionedCall/efficientdet-d5/block4b_se_excite/mul:0: 3cefb6d1
StatefulPartitionedCall/efficientdet-d5/block4b_project_bn/FusedBatchNormV3:0: 3d1ac5af
StatefulPartitionedCall/efficientdet-d5/block4b_add/add:0: 3e085862
StatefulPartitionedCall/efficientdet-d5/block4c_expand_bn/FusedBatchNormV3:0: 3d69c2d5
StatefulPartitionedCall/efficientdet-d5/block4c_expand_activation/Sigmoid:0: 3c00ed7c
StatefulPartitionedCall/efficientdet-d5/block4c_expand_activation/mul_1:0: 3cd14c5c
StatefulPartitionedCall/efficientdet-d5/block4c_bn/FusedBatchNormV3:0: 3d98de45
StatefulPartitionedCall/efficientdet-d5/block4c_activation/Sigmoid:0: 3c011215
StatefulPartitionedCall/efficientdet-d5/block4c_activation/mul_1:0: 3d43dbe2
StatefulPartitionedCall/efficientdet-d5/block4c_se_squeeze/Mean:0: 3b9aeedf
StatefulPartitionedCall/efficientdet-d5/block4c_se_squeeze/Mean_Squeeze__4969:0: 3b9aeedf
StatefulPartitionedCall/efficientdet-d5/block4c_se_reduce/BiasAdd__769:0: 3b9aeedf
StatefulPartitionedCall/efficientdet-d5/block4c_se_reduce/BiasAdd:0: 39e523b3
StatefulPartitionedCall/efficientdet-d5/block4c_se_reduce/Sigmoid:0: 3b9a5f7e
StatefulPartitionedCall/efficientdet-d5/block4c_se_reduce/mul_1:0: 392f7949
StatefulPartitionedCall/efficientdet-d5/block4c_se_expand/BiasAdd:0: 3a8cbd0e
StatefulPartitionedCall/efficientdet-d5/block4c_se_expand/Sigmoid:0: 3b94b506
StatefulPartitionedCall/efficientdet-d5/block4c_se_excite/mul:0: 3cc1efdc
StatefulPartitionedCall/efficientdet-d5/block4c_project_bn/FusedBatchNormV3:0: 3d0db823
StatefulPartitionedCall/efficientdet-d5/block4c_add/add:0: 3e01fcef
StatefulPartitionedCall/efficientdet-d5/block4d_expand_bn/FusedBatchNormV3:0: 3d675d2f
StatefulPartitionedCall/efficientdet-d5/block4d_expand_activation/Sigmoid:0: 3c010b21
StatefulPartitionedCall/efficientdet-d5/block4d_expand_activation/mul_1:0: 3d00c64e
StatefulPartitionedCall/efficientdet-d5/block4d_bn/FusedBatchNormV3:0: 3d6d73ee
StatefulPartitionedCall/efficientdet-d5/block4d_activation/Sigmoid:0: 3c0213ec
StatefulPartitionedCall/efficientdet-d5/block4d_activation/mul_1:0: 3d2ac99d
StatefulPartitionedCall/efficientdet-d5/block4d_se_squeeze/Mean:0: 3ba957ac
StatefulPartitionedCall/efficientdet-d5/block4d_se_squeeze/Mean_Squeeze__4953:0: 3ba957ac
StatefulPartitionedCall/efficientdet-d5/block4d_se_reduce/BiasAdd__813:0: 3ba957ac
StatefulPartitionedCall/efficientdet-d5/block4d_se_reduce/BiasAdd:0: 3a62ffb1
StatefulPartitionedCall/efficientdet-d5/block4d_se_reduce/Sigmoid:0: 3b98a21f
StatefulPartitionedCall/efficientdet-d5/block4d_se_reduce/mul_1:0: 39e42590
StatefulPartitionedCall/efficientdet-d5/block4d_se_expand/BiasAdd:0: 3a8e55b4
StatefulPartitionedCall/efficientdet-d5/block4d_se_expand/Sigmoid:0: 3b89f036
StatefulPartitionedCall/efficientdet-d5/block4d_se_excite/mul:0: 3c94f1c3
StatefulPartitionedCall/efficientdet-d5/block4d_project_bn/FusedBatchNormV3:0: 3cf691aa
StatefulPartitionedCall/efficientdet-d5/block4d_add/add:0: 3e087a2d
StatefulPartitionedCall/efficientdet-d5/block4e_expand_bn/FusedBatchNormV3:0: 3d5f4c18
StatefulPartitionedCall/efficientdet-d5/block4e_expand_activation/Sigmoid:0: 3c010c8d
StatefulPartitionedCall/efficientdet-d5/block4e_expand_activation/mul_1:0: 3d004e58
StatefulPartitionedCall/efficientdet-d5/block4e_bn/FusedBatchNormV3:0: 3d70d543
StatefulPartitionedCall/efficientdet-d5/block4e_activation/Sigmoid:0: 3c01121a
StatefulPartitionedCall/efficientdet-d5/block4e_activation/mul_1:0: 3d0fe38e
StatefulPartitionedCall/efficientdet-d5/block4e_se_squeeze/Mean:0: 3b678001
StatefulPartitionedCall/efficientdet-d5/block4e_se_squeeze/Mean_Squeeze__5029:0: 3b678001
StatefulPartitionedCall/efficientdet-d5/block4e_se_reduce/BiasAdd__857:0: 3b678001
StatefulPartitionedCall/efficientdet-d5/block4e_se_reduce/BiasAdd:0: 3a63ecec
StatefulPartitionedCall/efficientdet-d5/block4e_se_reduce/Sigmoid:0: 3b8a08b9
StatefulPartitionedCall/efficientdet-d5/block4e_se_reduce/mul_1:0: 39d341ea
StatefulPartitionedCall/efficientdet-d5/block4e_se_expand/BiasAdd:0: 3a7dc6c3
StatefulPartitionedCall/efficientdet-d5/block4e_se_expand/Sigmoid:0: 3b96960d
StatefulPartitionedCall/efficientdet-d5/block4e_se_excite/mul:0: 3c90f393
StatefulPartitionedCall/efficientdet-d5/block4e_project_bn/FusedBatchNormV3:0: 3cee260a
StatefulPartitionedCall/efficientdet-d5/block4e_add/add:0: 3e1b6b0a
StatefulPartitionedCall/efficientdet-d5/block4f_expand_bn/FusedBatchNormV3:0: 3d47ec3f
StatefulPartitionedCall/efficientdet-d5/block4f_expand_activation/Sigmoid:0: 3c01d1c6
StatefulPartitionedCall/efficientdet-d5/block4f_expand_activation/mul_1:0: 3d034278
StatefulPartitionedCall/efficientdet-d5/block4f_bn/FusedBatchNormV3:0: 3d807bbb
StatefulPartitionedCall/efficientdet-d5/block4f_activation/Sigmoid:0: 3c03f7db
StatefulPartitionedCall/efficientdet-d5/block4f_activation/mul_1:0: 3d15b7a7
StatefulPartitionedCall/efficientdet-d5/block4f_se_squeeze/Mean:0: 3b6b240c
StatefulPartitionedCall/efficientdet-d5/block4f_se_squeeze/Mean_Squeeze__5019:0: 3b6b240c
StatefulPartitionedCall/efficientdet-d5/block4f_se_reduce/BiasAdd__901:0: 3b6b240c
StatefulPartitionedCall/efficientdet-d5/block4f_se_reduce/BiasAdd:0: 39bd0ebd
StatefulPartitionedCall/efficientdet-d5/block4f_se_reduce/Sigmoid:0: 3b8e0946
StatefulPartitionedCall/efficientdet-d5/block4f_se_reduce/mul_1:0: 394d0db1
StatefulPartitionedCall/efficientdet-d5/block4f_se_expand/BiasAdd:0: 3a89527c
StatefulPartitionedCall/efficientdet-d5/block4f_se_expand/Sigmoid:0: 3b86e7ff
StatefulPartitionedCall/efficientdet-d5/block4f_se_excite/mul:0: 3c91a8b1
StatefulPartitionedCall/efficientdet-d5/block4f_project_bn/FusedBatchNormV3:0: 3d0c16ad
StatefulPartitionedCall/efficientdet-d5/block4f_add/add:0: 3e170af0
StatefulPartitionedCall/efficientdet-d5/block4g_expand_bn/FusedBatchNormV3:0: 3d5f0868
StatefulPartitionedCall/efficientdet-d5/block4g_expand_activation/Sigmoid:0: 3c04f858
StatefulPartitionedCall/efficientdet-d5/block4g_expand_activation/mul_1:0: 3cd3c8dc
StatefulPartitionedCall/efficientdet-d5/block4g_bn/FusedBatchNormV3:0: 3d4f6ece
StatefulPartitionedCall/efficientdet-d5/block4g_activation/Sigmoid:0: 3c01120b
StatefulPartitionedCall/efficientdet-d5/block4g_activation/mul_1:0: 3d26d4e7
StatefulPartitionedCall/efficientdet-d5/block4g_se_squeeze/Mean:0: 3b61ea85
StatefulPartitionedCall/efficientdet-d5/block4g_se_squeeze/Mean_Squeeze__5011:0: 3b61ea85
StatefulPartitionedCall/efficientdet-d5/block4g_se_reduce/BiasAdd__945:0: 3b61ea85
StatefulPartitionedCall/efficientdet-d5/block4g_se_reduce/BiasAdd:0: 3a068bfa
StatefulPartitionedCall/efficientdet-d5/block4g_se_reduce/Sigmoid:0: 3b8c6466
StatefulPartitionedCall/efficientdet-d5/block4g_se_reduce/mul_1:0: 397fc09f
StatefulPartitionedCall/efficientdet-d5/block4g_se_expand/BiasAdd:0: 3a9f7127
StatefulPartitionedCall/efficientdet-d5/block4g_se_expand/Sigmoid:0: 3b8a327b
StatefulPartitionedCall/efficientdet-d5/block4g_se_excite/mul:0: 3ca69d33
StatefulPartitionedCall/efficientdet-d5/block4g_project_bn/FusedBatchNormV3:0: 3d21180d
StatefulPartitionedCall/efficientdet-d5/block4g_add/add:0: 3e315435
StatefulPartitionedCall/efficientdet-d5/block5a_expand_bn/FusedBatchNormV3:0: 3d7df6d3
StatefulPartitionedCall/efficientdet-d5/block5a_expand_activation/Sigmoid:0: 3c02140b
StatefulPartitionedCall/efficientdet-d5/block5a_expand_activation/mul_1:0: 3d11e2a7
StatefulPartitionedCall/efficientdet-d5/block5a_bn/FusedBatchNormV3:0: 3e00bb06
StatefulPartitionedCall/efficientdet-d5/block5a_activation/Sigmoid:0: 3c010a14
StatefulPartitionedCall/efficientdet-d5/block5a_activation/mul_1:0: 3d93a329
StatefulPartitionedCall/efficientdet-d5/block5a_se_squeeze/Mean:0: 3c963a90
StatefulPartitionedCall/efficientdet-d5/block5a_se_squeeze/Mean_Squeeze__5017:0: 3c963a90
StatefulPartitionedCall/efficientdet-d5/block5a_se_reduce/BiasAdd__989:0: 3c963a90
StatefulPartitionedCall/efficientdet-d5/block5a_se_reduce/BiasAdd:0: 3cdab00b
StatefulPartitionedCall/efficientdet-d5/block5a_se_reduce/Sigmoid:0: 3c0172b5
StatefulPartitionedCall/efficientdet-d5/block5a_se_reduce/mul_1:0: 3cb62108
StatefulPartitionedCall/efficientdet-d5/block5a_se_expand/BiasAdd:0: 3cf41080
StatefulPartitionedCall/efficientdet-d5/block5a_se_expand/Sigmoid:0: 3bd12fa6
StatefulPartitionedCall/efficientdet-d5/block5a_se_excite/mul:0: 3cda465d
StatefulPartitionedCall/efficientdet-d5/block5a_project_bn/FusedBatchNormV3:0: 3e42d4c3
StatefulPartitionedCall/efficientdet-d5/block5b_expand_conv/Conv2D:0: 3d629c95
StatefulPartitionedCall/efficientdet-d5/block5b_expand_bn/FusedBatchNormV3:0: 3dc6b4b1
StatefulPartitionedCall/efficientdet-d5/block5b_expand_activation/Sigmoid:0: 3c011220
StatefulPartitionedCall/efficientdet-d5/block5b_expand_activation/mul_1:0: 3d273254
StatefulPartitionedCall/efficientdet-d5/block5b_bn/FusedBatchNormV3:0: 3d9b077a
StatefulPartitionedCall/efficientdet-d5/block5b_activation/Sigmoid:0: 3c010a14
StatefulPartitionedCall/efficientdet-d5/block5b_activation/mul_1:0: 3cf2e22b
StatefulPartitionedCall/efficientdet-d5/block5b_se_squeeze/Mean:0: 3b935f22
StatefulPartitionedCall/efficientdet-d5/block5b_se_squeeze/Mean_Squeeze__5021:0: 3b935f22
StatefulPartitionedCall/efficientdet-d5/block5b_se_reduce/BiasAdd__1033:0: 3b935f22
StatefulPartitionedCall/efficientdet-d5/block5b_se_reduce/BiasAdd:0: 3a3b07c5
StatefulPartitionedCall/efficientdet-d5/block5b_se_reduce/Sigmoid:0: 3b8cf817
StatefulPartitionedCall/efficientdet-d5/block5b_se_reduce/mul_1:0: 39dbeb2b
StatefulPartitionedCall/efficientdet-d5/block5b_se_expand/BiasAdd:0: 3a8301d2
StatefulPartitionedCall/efficientdet-d5/block5b_se_expand/Sigmoid:0: 3b8b2678
StatefulPartitionedCall/efficientdet-d5/block5b_se_excite/mul:0: 3cc3719d
StatefulPartitionedCall/efficientdet-d5/block5b_project_bn/FusedBatchNormV3:0: 3d0b4c7b
StatefulPartitionedCall/efficientdet-d5/block5b_add/add:0: 3e55c6de
StatefulPartitionedCall/efficientdet-d5/block5c_expand_bn/FusedBatchNormV3:0: 3dabc446
StatefulPartitionedCall/efficientdet-d5/block5c_expand_activation/Sigmoid:0: 3c021422
StatefulPartitionedCall/efficientdet-d5/block5c_expand_activation/mul_1:0: 3d473bee
StatefulPartitionedCall/efficientdet-d5/block5c_bn/FusedBatchNormV3:0: 3d84f0a0
StatefulPartitionedCall/efficientdet-d5/block5c_activation/Sigmoid:0: 3c011205
StatefulPartitionedCall/efficientdet-d5/block5c_activation/mul_1:0: 3d111244
StatefulPartitionedCall/efficientdet-d5/block5c_se_squeeze/Mean:0: 3b732091
StatefulPartitionedCall/efficientdet-d5/block5c_se_squeeze/Mean_Squeeze__5023:0: 3b732091
StatefulPartitionedCall/efficientdet-d5/block5c_se_reduce/BiasAdd__1077:0: 3b732091
StatefulPartitionedCall/efficientdet-d5/block5c_se_reduce/BiasAdd:0: 39f5f23b
StatefulPartitionedCall/efficientdet-d5/block5c_se_reduce/Sigmoid:0: 3b87eb72
StatefulPartitionedCall/efficientdet-d5/block5c_se_reduce/mul_1:0: 3979adef
StatefulPartitionedCall/efficientdet-d5/block5c_se_expand/BiasAdd:0: 3a8d2b75
StatefulPartitionedCall/efficientdet-d5/block5c_se_expand/Sigmoid:0: 3b98ae57
StatefulPartitionedCall/efficientdet-d5/block5c_se_excite/mul:0: 3c90cd18
StatefulPartitionedCall/efficientdet-d5/block5c_project_bn/FusedBatchNormV3:0: 3d02e85a
StatefulPartitionedCall/efficientdet-d5/block5c_add/add:0: 3e541f6a
StatefulPartitionedCall/efficientdet-d5/block5d_expand_bn/FusedBatchNormV3:0: 3d8dcb24
StatefulPartitionedCall/efficientdet-d5/block5d_expand_activation/Sigmoid:0: 3c01121f
StatefulPartitionedCall/efficientdet-d5/block5d_expand_activation/mul_1:0: 3cd0df35
StatefulPartitionedCall/efficientdet-d5/block5d_bn/FusedBatchNormV3:0: 3d5b2854
StatefulPartitionedCall/efficientdet-d5/block5d_activation/Sigmoid:0: 3c04181a
StatefulPartitionedCall/efficientdet-d5/block5d_activation/mul_1:0: 3d050124
StatefulPartitionedCall/efficientdet-d5/block5d_se_squeeze/Mean:0: 3b56f4da
StatefulPartitionedCall/efficientdet-d5/block5d_se_squeeze/Mean_Squeeze__4973:0: 3b56f4da
StatefulPartitionedCall/efficientdet-d5/block5d_se_reduce/BiasAdd__1121:0: 3b56f4da
StatefulPartitionedCall/efficientdet-d5/block5d_se_reduce/BiasAdd:0: 39569405
StatefulPartitionedCall/efficientdet-d5/block5d_se_reduce/Sigmoid:0: 3b820d6c
StatefulPartitionedCall/efficientdet-d5/block5d_se_reduce/mul_1:0: 38d8736f
StatefulPartitionedCall/efficientdet-d5/block5d_se_expand/BiasAdd:0: 3aa2ebfc
StatefulPartitionedCall/efficientdet-d5/block5d_se_expand/Sigmoid:0: 3b865e85
StatefulPartitionedCall/efficientdet-d5/block5d_se_excite/mul:0: 3c8e5e3d
StatefulPartitionedCall/efficientdet-d5/block5d_project_bn/FusedBatchNormV3:0: 3d03a7fb
StatefulPartitionedCall/efficientdet-d5/block5d_add/add:0: 3e68ccf0
StatefulPartitionedCall/efficientdet-d5/block5e_expand_bn/FusedBatchNormV3:0: 3d5f7d22
StatefulPartitionedCall/efficientdet-d5/block5e_expand_activation/Sigmoid:0: 3c01121f
StatefulPartitionedCall/efficientdet-d5/block5e_expand_activation/mul_1:0: 3cd2d773
StatefulPartitionedCall/efficientdet-d5/block5e_bn/FusedBatchNormV3:0: 3d45c945
StatefulPartitionedCall/efficientdet-d5/block5e_activation/Sigmoid:0: 3c011206
StatefulPartitionedCall/efficientdet-d5/block5e_activation/mul_1:0: 3d0149c8
StatefulPartitionedCall/efficientdet-d5/block5e_se_squeeze/Mean:0: 3b8a2761
StatefulPartitionedCall/efficientdet-d5/block5e_se_squeeze/Mean_Squeeze__5005:0: 3b8a2761
StatefulPartitionedCall/efficientdet-d5/block5e_se_reduce/BiasAdd__1165:0: 3b8a2761
StatefulPartitionedCall/efficientdet-d5/block5e_se_reduce/BiasAdd:0: 394c08bf
StatefulPartitionedCall/efficientdet-d5/block5e_se_reduce/Sigmoid:0: 3b81d884
StatefulPartitionedCall/efficientdet-d5/block5e_se_reduce/mul_1:0: 388f638f
StatefulPartitionedCall/efficientdet-d5/block5e_se_expand/BiasAdd:0: 3a97539f
StatefulPartitionedCall/efficientdet-d5/block5e_se_expand/Sigmoid:0: 3b8659b1
StatefulPartitionedCall/efficientdet-d5/block5e_se_excite/mul:0: 3c83f553
StatefulPartitionedCall/efficientdet-d5/block5e_project_bn/FusedBatchNormV3:0: 3cf92257
StatefulPartitionedCall/efficientdet-d5/block5e_add/add:0: 3e63df79
StatefulPartitionedCall/efficientdet-d5/block5f_expand_bn/FusedBatchNormV3:0: 3d3c658c
StatefulPartitionedCall/efficientdet-d5/block5f_expand_activation/Sigmoid:0: 3c011219
StatefulPartitionedCall/efficientdet-d5/block5f_expand_activation/mul_1:0: 3cef7ca2
StatefulPartitionedCall/efficientdet-d5/block5f_bn/FusedBatchNormV3:0: 3d2a7332
StatefulPartitionedCall/efficientdet-d5/block5f_activation/Sigmoid:0: 3c02140b
StatefulPartitionedCall/efficientdet-d5/block5f_activation/mul_1:0: 3d018850
StatefulPartitionedCall/efficientdet-d5/block5f_se_squeeze/Mean:0: 3b8d9fca
StatefulPartitionedCall/efficientdet-d5/block5f_se_squeeze/Mean_Squeeze__4965:0: 3b8d9fca
StatefulPartitionedCall/efficientdet-d5/block5f_se_reduce/BiasAdd__1209:0: 3b8d9fca
StatefulPartitionedCall/efficientdet-d5/block5f_se_reduce/BiasAdd:0: 3940c426
StatefulPartitionedCall/efficientdet-d5/block5f_se_reduce/Sigmoid:0: 3bae0966
StatefulPartitionedCall/efficientdet-d5/block5f_se_reduce/mul_1:0: 3900b185
StatefulPartitionedCall/efficientdet-d5/block5f_se_expand/BiasAdd:0: 3a7ae6e2
StatefulPartitionedCall/efficientdet-d5/block5f_se_expand/Sigmoid:0: 3b869776
StatefulPartitionedCall/efficientdet-d5/block5f_se_excite/mul:0: 3c62ccb0
StatefulPartitionedCall/efficientdet-d5/block5f_project_bn/FusedBatchNormV3:0: 3cfe242a
StatefulPartitionedCall/efficientdet-d5/block5f_add/add:0: 3e688120
StatefulPartitionedCall/efficientdet-d5/block5g_expand_bn/FusedBatchNormV3:0: 3d46e9a1
StatefulPartitionedCall/efficientdet-d5/block5g_expand_activation/Sigmoid:0: 3c025497
StatefulPartitionedCall/efficientdet-d5/block5g_expand_activation/mul_1:0: 3cc15981
StatefulPartitionedCall/efficientdet-d5/block5g_bn/FusedBatchNormV3:0: 3d3271a8
StatefulPartitionedCall/efficientdet-d5/block5g_activation/Sigmoid:0: 3c021421
StatefulPartitionedCall/efficientdet-d5/block5g_activation/mul_1:0: 3d035b88
StatefulPartitionedCall/efficientdet-d5/block5g_se_squeeze/Mean:0: 3b6381b2
StatefulPartitionedCall/efficientdet-d5/block5g_se_squeeze/Mean_Squeeze__4979:0: 3b6381b2
StatefulPartitionedCall/efficientdet-d5/block5g_se_reduce/BiasAdd__1253:0: 3b6381b2
StatefulPartitionedCall/efficientdet-d5/block5g_se_reduce/BiasAdd:0: 3920cbbe
StatefulPartitionedCall/efficientdet-d5/block5g_se_reduce/Sigmoid:0: 3b8205f4
StatefulPartitionedCall/efficientdet-d5/block5g_se_reduce/mul_1:0: 38f479db
StatefulPartitionedCall/efficientdet-d5/block5g_se_expand/BiasAdd:0: 3a90907e
StatefulPartitionedCall/efficientdet-d5/block5g_se_expand/Sigmoid:0: 3b8560e8
StatefulPartitionedCall/efficientdet-d5/block5g_se_excite/mul:0: 3c7f0ce2
StatefulPartitionedCall/efficientdet-d5/block5g_project_bn/FusedBatchNormV3:0: 3cfb5460
StatefulPartitionedCall/efficientdet-d5/block5g_add/add:0: 3e67fa03
StatefulPartitionedCall/efficientdet-d5/fpn_cell_0_fnode4resample_0_1_bn/FusedBatchNormV3:0: 3da1c948
StatefulPartitionedCall/efficientdet-d5/fpn_cell_0_fnode2resample_0_1_bn/FusedBatchNormV3:0: 3da18b21
StatefulPartitionedCall/efficientdet-d5/block6a_expand_bn/FusedBatchNormV3:0: 3da9353f
(Unnamed Layer* 547) [Shuffle]_output: 3b30233d
StatefulPartitionedCall/efficientdet-d5/fusion_fpn_cell_0_fnode4/truediv:0: 3cdcd63c
(Unnamed Layer* 550) [Shuffle]_output: 3b7892e6
StatefulPartitionedCall/efficientdet-d5/fusion_fpn_cell_0_fnode2/truediv:0: 3d1b980a
StatefulPartitionedCall/efficientdet-d5/block6a_expand_activation/Sigmoid:0: 3c010a14
StatefulPartitionedCall/efficientdet-d5/block6a_expand_activation/mul_1:0: 3d6a9ee5
StatefulPartitionedCall/efficientdet-d5/block6a_bn/FusedBatchNormV3:0: 3e095c28
StatefulPartitionedCall/efficientdet-d5/block6a_activation/Sigmoid:0: 3c010a14
StatefulPartitionedCall/efficientdet-d5/block6a_activation/mul_1:0: 3d41a6d4
StatefulPartitionedCall/efficientdet-d5/block6a_se_squeeze/Mean:0: 3cf7a12e
StatefulPartitionedCall/efficientdet-d5/block6a_se_squeeze/Mean_Squeeze__4961:0: 3cf7a12e
StatefulPartitionedCall/efficientdet-d5/block6a_se_reduce/BiasAdd__1321:0: 3cf7a12e
StatefulPartitionedCall/efficientdet-d5/block6a_se_reduce/BiasAdd:0: 3cf77f5e
StatefulPartitionedCall/efficientdet-d5/block6a_se_reduce/Sigmoid:0: 3bfc02bf
StatefulPartitionedCall/efficientdet-d5/block6a_se_reduce/mul_1:0: 3ce60694
StatefulPartitionedCall/efficientdet-d5/block6a_se_expand/BiasAdd:0: 3cc305bb
StatefulPartitionedCall/efficientdet-d5/block6a_se_expand/Sigmoid:0: 3bdb1cd9
StatefulPartitionedCall/efficientdet-d5/block6a_se_excite/mul:0: 3ce697a4
StatefulPartitionedCall/efficientdet-d5/block6a_project_bn/FusedBatchNormV3:0: 3e169a12
StatefulPartitionedCall/efficientdet-d5/block6b_expand_conv/Conv2D:0: 3d558b5a
StatefulPartitionedCall/efficientdet-d5/block6b_expand_bn/FusedBatchNormV3:0: 3dacce74
StatefulPartitionedCall/efficientdet-d5/block6b_expand_activation/Sigmoid:0: 3c011197
StatefulPartitionedCall/efficientdet-d5/block6b_expand_activation/mul_1:0: 3d000cca
StatefulPartitionedCall/efficientdet-d5/block6b_bn/FusedBatchNormV3:0: 3d9b5c9b
StatefulPartitionedCall/efficientdet-d5/block6b_activation/Sigmoid:0: 3c021426
StatefulPartitionedCall/efficientdet-d5/block6b_activation/mul_1:0: 3d26476d
StatefulPartitionedCall/efficientdet-d5/block6b_se_squeeze/Mean:0: 3be2c4cf
StatefulPartitionedCall/efficientdet-d5/block6b_se_squeeze/Mean_Squeeze__4991:0: 3be2c4cf
StatefulPartitionedCall/efficientdet-d5/block6b_se_reduce/BiasAdd__1365:0: 3be2c4cf
StatefulPartitionedCall/efficientdet-d5/block6b_se_reduce/BiasAdd:0: 3c874937
StatefulPartitionedCall/efficientdet-d5/block6b_se_reduce/Sigmoid:0: 3bf18a0d
StatefulPartitionedCall/efficientdet-d5/block6b_se_reduce/mul_1:0: 3bcf7a45
StatefulPartitionedCall/efficientdet-d5/block6b_se_expand/BiasAdd:0: 3b4040b3
StatefulPartitionedCall/efficientdet-d5/block6b_se_expand/Sigmoid:0: 3bae8218
StatefulPartitionedCall/efficientdet-d5/block6b_se_excite/mul:0: 3ce66187
StatefulPartitionedCall/efficientdet-d5/block6b_project_bn/FusedBatchNormV3:0: 3ce863ec
StatefulPartitionedCall/efficientdet-d5/block6b_add/add:0: 3e1ff3ee
StatefulPartitionedCall/efficientdet-d5/block6c_expand_bn/FusedBatchNormV3:0: 3d9422ba
StatefulPartitionedCall/efficientdet-d5/block6c_expand_activation/Sigmoid:0: 3c01102d
StatefulPartitionedCall/efficientdet-d5/block6c_expand_activation/mul_1:0: 3d1321fb
StatefulPartitionedCall/efficientdet-d5/block6c_bn/FusedBatchNormV3:0: 3d8e55ba
StatefulPartitionedCall/efficientdet-d5/block6c_activation/Sigmoid:0: 3c0111d7
StatefulPartitionedCall/efficientdet-d5/block6c_activation/mul_1:0: 3d272bc9
StatefulPartitionedCall/efficientdet-d5/block6c_se_squeeze/Mean:0: 3bc5e068
StatefulPartitionedCall/efficientdet-d5/block6c_se_squeeze/Mean_Squeeze__5013:0: 3bc5e068
StatefulPartitionedCall/efficientdet-d5/block6c_se_reduce/BiasAdd__1409:0: 3bc5e068
StatefulPartitionedCall/efficientdet-d5/block6c_se_reduce/BiasAdd:0: 3b597e09
StatefulPartitionedCall/efficientdet-d5/block6c_se_reduce/Sigmoid:0: 3ba20d48
StatefulPartitionedCall/efficientdet-d5/block6c_se_reduce/mul_1:0: 3b25f69c
StatefulPartitionedCall/efficientdet-d5/block6c_se_expand/BiasAdd:0: 3a82a0b6
StatefulPartitionedCall/efficientdet-d5/block6c_se_expand/Sigmoid:0: 3b91a0ce
StatefulPartitionedCall/efficientdet-d5/block6c_se_excite/mul:0: 3cc5d9d7
StatefulPartitionedCall/efficientdet-d5/block6c_project_bn/FusedBatchNormV3:0: 3cce2792
StatefulPartitionedCall/efficientdet-d5/block6c_add/add:0: 3e1c19f3
StatefulPartitionedCall/efficientdet-d5/block6d_expand_bn/FusedBatchNormV3:0: 3d85604b
StatefulPartitionedCall/efficientdet-d5/block6d_expand_activation/Sigmoid:0: 3c010c99
StatefulPartitionedCall/efficientdet-d5/block6d_expand_activation/mul_1:0: 3d006e5a
StatefulPartitionedCall/efficientdet-d5/block6d_bn/FusedBatchNormV3:0: 3d793f01
StatefulPartitionedCall/efficientdet-d5/block6d_activation/Sigmoid:0: 3c0213e5
StatefulPartitionedCall/efficientdet-d5/block6d_activation/mul_1:0: 3d2925bb
StatefulPartitionedCall/efficientdet-d5/block6d_se_squeeze/Mean:0: 3bb7aabf
StatefulPartitionedCall/efficientdet-d5/block6d_se_squeeze/Mean_Squeeze__4989:0: 3bb7aabf
StatefulPartitionedCall/efficientdet-d5/block6d_se_reduce/BiasAdd__1453:0: 3bb7aabf
StatefulPartitionedCall/efficientdet-d5/block6d_se_reduce/BiasAdd:0: 3a83c28f
StatefulPartitionedCall/efficientdet-d5/block6d_se_reduce/Sigmoid:0: 3b8dd9e2
StatefulPartitionedCall/efficientdet-d5/block6d_se_reduce/mul_1:0: 3a0f703f
StatefulPartitionedCall/efficientdet-d5/block6d_se_expand/BiasAdd:0: 3aa5c227
StatefulPartitionedCall/efficientdet-d5/block6d_se_expand/Sigmoid:0: 3b871600
StatefulPartitionedCall/efficientdet-d5/block6d_se_excite/mul:0: 3c941b52
StatefulPartitionedCall/efficientdet-d5/block6d_project_bn/FusedBatchNormV3:0: 3cc351e1
StatefulPartitionedCall/efficientdet-d5/block6d_add/add:0: 3e1d1d44
StatefulPartitionedCall/efficientdet-d5/block6e_expand_bn/FusedBatchNormV3:0: 3d7586fe
StatefulPartitionedCall/efficientdet-d5/block6e_expand_activation/Sigmoid:0: 3c011078
StatefulPartitionedCall/efficientdet-d5/block6e_expand_activation/mul_1:0: 3ce75962
StatefulPartitionedCall/efficientdet-d5/block6e_bn/FusedBatchNormV3:0: 3d6585fc
StatefulPartitionedCall/efficientdet-d5/block6e_activation/Sigmoid:0: 3c0213f6
StatefulPartitionedCall/efficientdet-d5/block6e_activation/mul_1:0: 3d013f82
StatefulPartitionedCall/efficientdet-d5/block6e_se_squeeze/Mean:0: 3b9ef6a2
StatefulPartitionedCall/efficientdet-d5/block6e_se_squeeze/Mean_Squeeze__4985:0: 3b9ef6a2
StatefulPartitionedCall/efficientdet-d5/block6e_se_reduce/BiasAdd__1497:0: 3b9ef6a2
StatefulPartitionedCall/efficientdet-d5/block6e_se_reduce/BiasAdd:0: 3aff884d
StatefulPartitionedCall/efficientdet-d5/block6e_se_reduce/Sigmoid:0: 3b9459ef
StatefulPartitionedCall/efficientdet-d5/block6e_se_reduce/mul_1:0: 3aa2636c
StatefulPartitionedCall/efficientdet-d5/block6e_se_expand/BiasAdd:0: 3aa0a669
StatefulPartitionedCall/efficientdet-d5/block6e_se_expand/Sigmoid:0: 3b863ad2
StatefulPartitionedCall/efficientdet-d5/block6e_se_excite/mul:0: 3c817248
StatefulPartitionedCall/efficientdet-d5/block6e_project_bn/FusedBatchNormV3:0: 3ce3c20d
StatefulPartitionedCall/efficientdet-d5/block6e_add/add:0: 3e208093
StatefulPartitionedCall/efficientdet-d5/block6f_expand_bn/FusedBatchNormV3:0: 3d61aced
StatefulPartitionedCall/efficientdet-d5/block6f_expand_activation/Sigmoid:0: 3c010749
StatefulPartitionedCall/efficientdet-d5/block6f_expand_activation/mul_1:0: 3d118a0f
StatefulPartitionedCall/efficientdet-d5/block6f_bn/FusedBatchNormV3:0: 3d6ee2f2
StatefulPartitionedCall/efficientdet-d5/block6f_activation/Sigmoid:0: 3c0111fb
StatefulPartitionedCall/efficientdet-d5/block6f_activation/mul_1:0: 3d037e55
StatefulPartitionedCall/efficientdet-d5/block6f_se_squeeze/Mean:0: 3ba5998e
StatefulPartitionedCall/efficientdet-d5/block6f_se_squeeze/Mean_Squeeze__4959:0: 3ba5998e
StatefulPartitionedCall/efficientdet-d5/block6f_se_reduce/BiasAdd__1541:0: 3ba5998e
StatefulPartitionedCall/efficientdet-d5/block6f_se_reduce/BiasAdd:0: 3a3459ea
StatefulPartitionedCall/efficientdet-d5/block6f_se_reduce/Sigmoid:0: 3b86975f
StatefulPartitionedCall/efficientdet-d5/block6f_se_reduce/mul_1:0: 39be17c5
StatefulPartitionedCall/efficientdet-d5/block6f_se_expand/BiasAdd:0: 3aa1082c
StatefulPartitionedCall/efficientdet-d5/block6f_se_expand/Sigmoid:0: 3b8cebdf
StatefulPartitionedCall/efficientdet-d5/block6f_se_excite/mul:0: 3ca65914
StatefulPartitionedCall/efficientdet-d5/block6f_project_bn/FusedBatchNormV3:0: 3cc32925
StatefulPartitionedCall/efficientdet-d5/block6f_add/add:0: 3e29ab76
StatefulPartitionedCall/efficientdet-d5/block6g_expand_bn/FusedBatchNormV3:0: 3d5083cd
StatefulPartitionedCall/efficientdet-d5/block6g_expand_activation/Sigmoid:0: 3c010e8d
StatefulPartitionedCall/efficientdet-d5/block6g_expand_activation/mul_1:0: 3d127b00
StatefulPartitionedCall/efficientdet-d5/block6g_bn/FusedBatchNormV3:0: 3d4fa832
StatefulPartitionedCall/efficientdet-d5/block6g_activation/Sigmoid:0: 3c01117d
StatefulPartitionedCall/efficientdet-d5/block6g_activation/mul_1:0: 3d11595c
StatefulPartitionedCall/efficientdet-d5/block6g_se_squeeze/Mean:0: 3bb32082
StatefulPartitionedCall/efficientdet-d5/block6g_se_squeeze/Mean_Squeeze__5001:0: 3bb32082
StatefulPartitionedCall/efficientdet-d5/block6g_se_reduce/BiasAdd__1585:0: 3bb32082
StatefulPartitionedCall/efficientdet-d5/block6g_se_reduce/BiasAdd:0: 3a2d283e
StatefulPartitionedCall/efficientdet-d5/block6g_se_reduce/Sigmoid:0: 3ba3efd0
StatefulPartitionedCall/efficientdet-d5/block6g_se_reduce/mul_1:0: 39b50641
StatefulPartitionedCall/efficientdet-d5/block6g_se_expand/BiasAdd:0: 3ab98d0f
StatefulPartitionedCall/efficientdet-d5/block6g_se_expand/Sigmoid:0: 3b8d63c8
StatefulPartitionedCall/efficientdet-d5/block6g_se_excite/mul:0: 3c933cf1
StatefulPartitionedCall/efficientdet-d5/block6g_project_bn/FusedBatchNormV3:0: 3cb19a6e
StatefulPartitionedCall/efficientdet-d5/block6g_add/add:0: 3e2a5407
StatefulPartitionedCall/efficientdet-d5/block6h_expand_bn/FusedBatchNormV3:0: 3d54b6bf
StatefulPartitionedCall/efficientdet-d5/block6h_expand_activation/Sigmoid:0: 3c020bb3
StatefulPartitionedCall/efficientdet-d5/block6h_expand_activation/mul_1:0: 3d109b63
StatefulPartitionedCall/efficientdet-d5/block6h_bn/FusedBatchNormV3:0: 3d5fa94d
StatefulPartitionedCall/efficientdet-d5/block6h_activation/Sigmoid:0: 3c01106a
StatefulPartitionedCall/efficientdet-d5/block6h_activation/mul_1:0: 3d29bb04
StatefulPartitionedCall/efficientdet-d5/block6h_se_squeeze/Mean:0: 3ba80238
StatefulPartitionedCall/efficientdet-d5/block6h_se_squeeze/Mean_Squeeze__4999:0: 3ba80238
StatefulPartitionedCall/efficientdet-d5/block6h_se_reduce/BiasAdd__1629:0: 3ba80238
StatefulPartitionedCall/efficientdet-d5/block6h_se_reduce/BiasAdd:0: 39993f1c
StatefulPartitionedCall/efficientdet-d5/block6h_se_reduce/Sigmoid:0: 3b8ffb04
StatefulPartitionedCall/efficientdet-d5/block6h_se_reduce/mul_1:0: 392c1867
StatefulPartitionedCall/efficientdet-d5/block6h_se_expand/BiasAdd:0: 3a9c6da0
StatefulPartitionedCall/efficientdet-d5/block6h_se_expand/Sigmoid:0: 3b87a6e3
StatefulPartitionedCall/efficientdet-d5/block6h_se_excite/mul:0: 3cabecfe
StatefulPartitionedCall/efficientdet-d5/block6h_project_bn/FusedBatchNormV3:0: 3cbf7485
StatefulPartitionedCall/efficientdet-d5/block6h_add/add:0: 3e3020af
StatefulPartitionedCall/efficientdet-d5/block6i_expand_bn/FusedBatchNormV3:0: 3d58596c
StatefulPartitionedCall/efficientdet-d5/block6i_expand_activation/Sigmoid:0: 3c0109fd
StatefulPartitionedCall/efficientdet-d5/block6i_expand_activation/mul_1:0: 3d1119eb
StatefulPartitionedCall/efficientdet-d5/block6i_bn/FusedBatchNormV3:0: 3d43146e
StatefulPartitionedCall/efficientdet-d5/block6i_activation/Sigmoid:0: 3c011107
StatefulPartitionedCall/efficientdet-d5/block6i_activation/mul_1:0: 3ce80cd7
StatefulPartitionedCall/efficientdet-d5/block6i_se_squeeze/Mean:0: 3ba0d000
StatefulPartitionedCall/efficientdet-d5/block6i_se_squeeze/Mean_Squeeze__5025:0: 3ba0d000
StatefulPartitionedCall/efficientdet-d5/block6i_se_reduce/BiasAdd__1673:0: 3ba0d000
StatefulPartitionedCall/efficientdet-d5/block6i_se_reduce/BiasAdd:0: 39adffb6
StatefulPartitionedCall/efficientdet-d5/block6i_se_reduce/Sigmoid:0: 3b8c5620
StatefulPartitionedCall/efficientdet-d5/block6i_se_reduce/mul_1:0: 392efe08
StatefulPartitionedCall/efficientdet-d5/block6i_se_expand/BiasAdd:0: 3a8b287e
StatefulPartitionedCall/efficientdet-d5/block6i_se_expand/Sigmoid:0: 3b8896f8
StatefulPartitionedCall/efficientdet-d5/block6i_se_excite/mul:0: 3c80433a
StatefulPartitionedCall/efficientdet-d5/block6i_project_bn/FusedBatchNormV3:0: 3ca75880
StatefulPartitionedCall/efficientdet-d5/block6i_add/add:0: 3e39353d
StatefulPartitionedCall/efficientdet-d5/block7a_expand_bn/FusedBatchNormV3:0: 3d9767e4
StatefulPartitionedCall/efficientdet-d5/block7a_expand_activation/Sigmoid:0: 3c0213cb
StatefulPartitionedCall/efficientdet-d5/block7a_expand_activation/mul_1:0: 3cffd948
StatefulPartitionedCall/efficientdet-d5/block7a_bn/FusedBatchNormV3:0: 3e06356d
StatefulPartitionedCall/efficientdet-d5/block7a_activation/Sigmoid:0: 3c010a14
StatefulPartitionedCall/efficientdet-d5/block7a_activation/mul_1:0: 3d448408
StatefulPartitionedCall/efficientdet-d5/block7a_se_squeeze/Mean:0: 3c90a8ad
StatefulPartitionedCall/efficientdet-d5/block7a_se_squeeze/Mean_Squeeze__4993:0: 3c90a8ad
StatefulPartitionedCall/efficientdet-d5/block7a_se_reduce/BiasAdd__1717:0: 3c90a8ad
StatefulPartitionedCall/efficientdet-d5/block7a_se_reduce/BiasAdd:0: 3d0086eb
StatefulPartitionedCall/efficientdet-d5/block7a_se_reduce/Sigmoid:0: 3c09fba5
StatefulPartitionedCall/efficientdet-d5/block7a_se_reduce/mul_1:0: 3d107834
StatefulPartitionedCall/efficientdet-d5/block7a_se_expand/BiasAdd:0: 3d073e01
StatefulPartitionedCall/efficientdet-d5/block7a_se_expand/Sigmoid:0: 3bf49b57
StatefulPartitionedCall/efficientdet-d5/block7a_se_excite/mul:0: 3ca6d5f9
StatefulPartitionedCall/efficientdet-d5/block7a_project_bn/FusedBatchNormV3:0: 3df1f3b3
StatefulPartitionedCall/efficientdet-d5/block7b_expand_conv/Conv2D:0: 3d38cb4c
StatefulPartitionedCall/efficientdet-d5/block7b_expand_bn/FusedBatchNormV3:0: 3da8938f
StatefulPartitionedCall/efficientdet-d5/block7b_expand_activation/Sigmoid:0: 3c01119d
StatefulPartitionedCall/efficientdet-d5/block7b_expand_activation/mul_1:0: 3d0092ec
StatefulPartitionedCall/efficientdet-d5/block7b_bn/FusedBatchNormV3:0: 3dbc4678
StatefulPartitionedCall/efficientdet-d5/block7b_activation/Sigmoid:0: 3c010a14
StatefulPartitionedCall/efficientdet-d5/block7b_activation/mul_1:0: 3d020017
StatefulPartitionedCall/efficientdet-d5/block7b_se_squeeze/Mean:0: 3c538925
StatefulPartitionedCall/efficientdet-d5/block7b_se_squeeze/Mean_Squeeze__4975:0: 3c538925
StatefulPartitionedCall/efficientdet-d5/block7b_se_reduce/BiasAdd__1761:0: 3c538925
StatefulPartitionedCall/efficientdet-d5/block7b_se_reduce/BiasAdd:0: 3ccc2708
StatefulPartitionedCall/efficientdet-d5/block7b_se_reduce/Sigmoid:0: 3c085a1a
StatefulPartitionedCall/efficientdet-d5/block7b_se_reduce/mul_1:0: 3cc37c38
StatefulPartitionedCall/efficientdet-d5/block7b_se_expand/BiasAdd:0: 3c920307
StatefulPartitionedCall/efficientdet-d5/block7b_se_expand/Sigmoid:0: 3bf454a0
StatefulPartitionedCall/efficientdet-d5/block7b_se_excite/mul:0: 3d01e44e
StatefulPartitionedCall/efficientdet-d5/block7b_project_bn/FusedBatchNormV3:0: 3cdc8d6f
StatefulPartitionedCall/efficientdet-d5/block7b_add/add:0: 3dea91a6
StatefulPartitionedCall/efficientdet-d5/block7c_expand_bn/FusedBatchNormV3:0: 3da00f86
StatefulPartitionedCall/efficientdet-d5/block7c_expand_activation/Sigmoid:0: 3c0111db
StatefulPartitionedCall/efficientdet-d5/block7c_expand_activation/mul_1:0: 3d026c55
StatefulPartitionedCall/efficientdet-d5/block7c_bn/FusedBatchNormV3:0: 3dc4ee93
StatefulPartitionedCall/efficientdet-d5/block7c_activation/Sigmoid:0: 3c010a14
StatefulPartitionedCall/efficientdet-d5/block7c_activation/mul_1:0: 3cf76a00
StatefulPartitionedCall/efficientdet-d5/block7c_se_squeeze/Mean:0: 3c7757ec
StatefulPartitionedCall/efficientdet-d5/block7c_se_squeeze/Mean_Squeeze__5007:0: 3c7757ec
StatefulPartitionedCall/efficientdet-d5/block7c_se_reduce/BiasAdd__1805:0: 3c7757ec
StatefulPartitionedCall/efficientdet-d5/block7c_se_reduce/BiasAdd:0: 3d1f0e75
StatefulPartitionedCall/efficientdet-d5/block7c_se_reduce/Sigmoid:0: 3c022541
StatefulPartitionedCall/efficientdet-d5/block7c_se_reduce/mul_1:0: 3cebad62
StatefulPartitionedCall/efficientdet-d5/block7c_se_expand/BiasAdd:0: 3d1113f4
StatefulPartitionedCall/efficientdet-d5/block7c_se_expand/Sigmoid:0: 3bd6889d
StatefulPartitionedCall/efficientdet-d5/block7c_se_excite/mul:0: 3caaaaa6
StatefulPartitionedCall/efficientdet-d5/block7c_project_bn/FusedBatchNormV3:0: 3d018725
StatefulPartitionedCall/efficientdet-d5/resample_p6_conv2d/BiasAdd:0: 3d24b977
StatefulPartitionedCall/efficientdet-d5/fpn_cell_0_fnode5resample_0_2_conv2d/BiasAdd:0: 3d1c21ae
StatefulPartitionedCall/efficientdet-d5/fpn_cell_0_fnode1resample_0_2_conv2d/BiasAdd:0: 3d409f2c
StatefulPartitionedCall/efficientdet-d5/resample_p6_bn/FusedBatchNormV3:0: 3d8cae83
StatefulPartitionedCall/efficientdet-d5/fpn_cell_0_fnode5resample_0_2_bn/FusedBatchNormV3:0: 3d81f9f4
StatefulPartitionedCall/efficientdet-d5/fpn_cell_0_fnode1resample_0_2_bn/FusedBatchNormV3:0: 3d889e47
StatefulPartitionedCall/efficientdet-d5/max_pooling2d/MaxPool:0: 3d8cae83
(Unnamed Layer* 798) [Shuffle]_output: 3b96de07
StatefulPartitionedCall/efficientdet-d5/fusion_fpn_cell_0_fnode5/truediv:0: 3d17f67b
(Unnamed Layer* 801) [Shuffle]_output: 3bb3c238
StatefulPartitionedCall/efficientdet-d5/fusion_fpn_cell_0_fnode1/truediv:0: 3d3e5104
StatefulPartitionedCall/efficientdet-d5/max_pooling2d_1/MaxPool:0: 3d8cae83
(Unnamed Layer* 805) [Shuffle]_output: 3b290d17
StatefulPartitionedCall/efficientdet-d5/fusion_fpn_cell_0_fnode6/truediv:0: 3cc95874
(Unnamed Layer* 808) [Shuffle]_output: 3b8b3c17
StatefulPartitionedCall/efficientdet-d5/fusion_fpn_cell_0_fnode0/truediv:0: 3d25d54d
(Unnamed Layer* 811) [Shuffle]_output: 3b7c592a
StatefulPartitionedCall/efficientdet-d5/fusion_fpn_cell_0_fnode7/truediv:0: 3d1c90e4
Resize__1858:0: 3da01f10
(Unnamed Layer* 815) [Shuffle]_output: 3b6da982
StatefulPartitionedCall/efficientdet-d5/fusion_fpn_cell_0_fnode0/truediv_1:0: 3d137444
StatefulPartitionedCall/efficientdet-d5/fusion_fpn_cell_0_fnode0/AddN_1:0: 3da01d02
StatefulPartitionedCall/efficientdet-d5/activation/Sigmoid:0: 3c031308
StatefulPartitionedCall/efficientdet-d5/activation/mul_1:0: 3d9dc293
StatefulPartitionedCall/efficientdet-d5/fpn_cell_0_fnode0_op_after_combine_3_conv/separable_conv2d/depthwise:0: 3c67d1d3
StatefulPartitionedCall/efficientdet-d5/fpn_cell_0_fnode0_op_after_combine_3_conv/BiasAdd:0: 3c06b174
StatefulPartitionedCall/efficientdet-d5/fpn_cell_0_fnode0_op_after_combine_3_bn/FusedBatchNormV3:0: 3d549890
(Unnamed Layer* 824) [Shuffle]_output: 3b268931
StatefulPartitionedCall/efficientdet-d5/fusion_fpn_cell_0_fnode6/truediv_1:0: 3c892faf
Resize__1879:0: 3d549890
(Unnamed Layer* 828) [Shuffle]_output: 3b1c9cc9
StatefulPartitionedCall/efficientdet-d5/fusion_fpn_cell_0_fnode1/truediv_1:0: 3c8102fc
StatefulPartitionedCall/efficientdet-d5/fusion_fpn_cell_0_fnode1/AddN_1:0: 3d647696
StatefulPartitionedCall/efficientdet-d5/activation_1/Sigmoid:0: 3c0103da
StatefulPartitionedCall/efficientdet-d5/activation_1/mul_1:0: 3d107afe
StatefulPartitionedCall/efficientdet-d5/fpn_cell_0_fnode1_op_after_combine_2_conv/separable_conv2d/depthwise:0: 3bcff2cd
StatefulPartitionedCall/efficientdet-d5/fpn_cell_0_fnode1_op_after_combine_2_conv/BiasAdd:0: 3b9d77bb
StatefulPartitionedCall/efficientdet-d5/fpn_cell_0_fnode1_op_after_combine_2_bn/FusedBatchNormV3:0: 3d62712e
(Unnamed Layer* 837) [Shuffle]_output: 3b51fb08
StatefulPartitionedCall/efficientdet-d5/fusion_fpn_cell_0_fnode5/truediv_1:0: 3cb83d75
Resize__1922:0: 3d62712e
(Unnamed Layer* 841) [Shuffle]_output: 3b85c769
StatefulPartitionedCall/efficientdet-d5/fusion_fpn_cell_0_fnode2/truediv_1:0: 3ceac25f
StatefulPartitionedCall/efficientdet-d5/fusion_fpn_cell_0_fnode2/AddN_1:0: 3d377a45
StatefulPartitionedCall/efficientdet-d5/activation_2/Sigmoid:0: 3c007c88
StatefulPartitionedCall/efficientdet-d5/activation_2/mul_1:0: 3d11c1f4
StatefulPartitionedCall/efficientdet-d5/fpn_cell_0_fnode2_op_after_combine_1_conv/separable_conv2d/depthwise:0: 3baf18ba
StatefulPartitionedCall/efficientdet-d5/fpn_cell_0_fnode2_op_after_combine_1_conv/BiasAdd:0: 3b8bfe0b
StatefulPartitionedCall/efficientdet-d5/fpn_cell_0_fnode2_op_after_combine_1_bn/FusedBatchNormV3:0: 3d647082
(Unnamed Layer* 850) [Shuffle]_output: 3b46cc67
StatefulPartitionedCall/efficientdet-d5/fusion_fpn_cell_0_fnode4/truediv_1:0: 3caff79f
Resize__1941:0: 3d647082
(Unnamed Layer* 854) [Shuffle]_output: 3b85ec43
StatefulPartitionedCall/efficientdet-d5/fusion_fpn_cell_0_fnode3/truediv_1:0: 3ced15b6
StatefulPartitionedCall/efficientdet-d5/fusion_fpn_cell_0_fnode3/AddN_1:0: 3d1b69d7
StatefulPartitionedCall/efficientdet-d5/activation_3/Sigmoid:0: 3c01089b
StatefulPartitionedCall/efficientdet-d5/activation_3/mul_1:0: 3cd21ac3
StatefulPartitionedCall/efficientdet-d5/fpn_cell_0_fnode3_op_after_combine_0_conv/separable_conv2d/depthwise:0: 3b8ddb94
StatefulPartitionedCall/efficientdet-d5/fpn_cell_0_fnode3_op_after_combine_0_conv/BiasAdd:0: 3b71149c
StatefulPartitionedCall/efficientdet-d5/fpn_cell_0_fnode3_op_after_combine_0_bn/FusedBatchNormV3:0: 3d85c0fd
StatefulPartitionedCall/efficientdet-d5/max_pooling2d_2/MaxPool:0: 3d85c0fd
(Unnamed Layer* 864) [Shuffle]_output: 3b9578d7
StatefulPartitionedCall/efficientdet-d5/fusion_fpn_cell_1_fnode3/truediv:0: 3d1aeedb
(Unnamed Layer* 867) [Shuffle]_output: 3b0d343d
StatefulPartitionedCall/efficientdet-d5/fusion_fpn_cell_0_fnode4/truediv_2:0: 3c928d8e
(Unnamed Layer* 869) [ElementWise]_output: 3d0b39cf
StatefulPartitionedCall/efficientdet-d5/fusion_fpn_cell_0_fnode4/AddN_1:0: 3d3e6378
StatefulPartitionedCall/efficientdet-d5/activation_4/Sigmoid:0: 3c01c1f8
StatefulPartitionedCall/efficientdet-d5/activation_4/mul_1:0: 3d234ea5
StatefulPartitionedCall/efficientdet-d5/fpn_cell_0_fnode4_op_after_combine_1_conv/separable_conv2d/depthwise:0: 3b973811
StatefulPartitionedCall/efficientdet-d5/fpn_cell_0_fnode4_op_after_combine_1_conv/BiasAdd:0: 3b62627b
StatefulPartitionedCall/efficientdet-d5/fpn_cell_0_fnode4_op_after_combine_1_bn/FusedBatchNormV3:0: 3d658334
StatefulPartitionedCall/efficientdet-d5/max_pooling2d_3/MaxPool:0: 3d658334
(Unnamed Layer* 878) [Shuffle]_output: 3b248d6b
StatefulPartitionedCall/efficientdet-d5/fusion_fpn_cell_1_fnode4/truediv:0: 3c9256a3
(Unnamed Layer* 881) [Shuffle]_output: 3b91d547
StatefulPartitionedCall/efficientdet-d5/fusion_fpn_cell_1_fnode2/truediv:0: 3d01b0ee
(Unnamed Layer* 884) [Shuffle]_output: 388d79f3
StatefulPartitionedCall/efficientdet-d5/fusion_fpn_cell_0_fnode5/truediv_2:0: 3a17b17d
(Unnamed Layer* 886) [ElementWise]_output: 3d44169d
StatefulPartitionedCall/efficientdet-d5/fusion_fpn_cell_0_fnode5/AddN_1:0: 3d467a02
StatefulPartitionedCall/efficientdet-d5/activation_5/Sigmoid:0: 3c00a4c2
StatefulPartitionedCall/efficientdet-d5/activation_5/mul_1:0: 3d00c2b9
StatefulPartitionedCall/efficientdet-d5/fpn_cell_0_fnode5_op_after_combine_2_conv/separable_conv2d/depthwise:0: 3bd4e460
StatefulPartitionedCall/efficientdet-d5/fpn_cell_0_fnode5_op_after_combine_2_conv/BiasAdd:0: 3bafe122
StatefulPartitionedCall/efficientdet-d5/fpn_cell_0_fnode5_op_after_combine_2_bn/FusedBatchNormV3:0: 3d91fd7a
StatefulPartitionedCall/efficientdet-d5/max_pooling2d_4/MaxPool:0: 3d91fd7a
(Unnamed Layer* 895) [Shuffle]_output: 3b594011
StatefulPartitionedCall/efficientdet-d5/fusion_fpn_cell_1_fnode5/truediv:0: 3cf5c9dc
(Unnamed Layer* 898) [Shuffle]_output: 3bb21ba3
StatefulPartitionedCall/efficientdet-d5/fusion_fpn_cell_1_fnode1/truediv:0: 3d498123
(Unnamed Layer* 901) [Shuffle]_output: 3b348da0
StatefulPartitionedCall/efficientdet-d5/fusion_fpn_cell_0_fnode6/truediv_2:0: 3ce424d2
(Unnamed Layer* 903) [ElementWise]_output: 3cd454e6
StatefulPartitionedCall/efficientdet-d5/fusion_fpn_cell_0_fnode6/AddN_1:0: 3d28d0d5
StatefulPartitionedCall/efficientdet-d5/activation_6/Sigmoid:0: 3c021709
StatefulPartitionedCall/efficientdet-d5/activation_6/mul_1:0: 3d240dbd
StatefulPartitionedCall/efficientdet-d5/fpn_cell_0_fnode6_op_after_combine_3_conv/separable_conv2d/depthwise:0: 3b9e4421
StatefulPartitionedCall/efficientdet-d5/fpn_cell_0_fnode6_op_after_combine_3_conv/BiasAdd:0: 3b52ae7b
StatefulPartitionedCall/efficientdet-d5/fpn_cell_0_fnode6_op_after_combine_3_bn/FusedBatchNormV3:0: 3d42936e
StatefulPartitionedCall/efficientdet-d5/max_pooling2d_5/MaxPool:0: 3d42936e
(Unnamed Layer* 912) [Shuffle]_output: 3b2b96b6
StatefulPartitionedCall/efficientdet-d5/fusion_fpn_cell_1_fnode6/truediv:0: 3c815e1c
(Unnamed Layer* 915) [Shuffle]_output: 3b8ba091
StatefulPartitionedCall/efficientdet-d5/fusion_fpn_cell_1_fnode0/truediv:0: 3cd28a86
(Unnamed Layer* 918) [Shuffle]_output: 3b83e446
StatefulPartitionedCall/efficientdet-d5/fusion_fpn_cell_0_fnode7/truediv_1:0: 3cd630ff
StatefulPartitionedCall/efficientdet-d5/fusion_fpn_cell_0_fnode7/AddN_1:0: 3d3d6d4a
StatefulPartitionedCall/efficientdet-d5/activation_7/Sigmoid:0: 3c005cf1
StatefulPartitionedCall/efficientdet-d5/activation_7/mul_1:0: 3d32c236
StatefulPartitionedCall/efficientdet-d5/fpn_cell_0_fnode7_op_after_combine_4_conv/separable_conv2d/depthwise:0: 3be4400c
StatefulPartitionedCall/efficientdet-d5/fpn_cell_0_fnode7_op_after_combine_4_conv/BiasAdd:0: 3ba54a95
StatefulPartitionedCall/efficientdet-d5/fpn_cell_0_fnode7_op_after_combine_4_bn/FusedBatchNormV3:0: 3d080745
(Unnamed Layer* 927) [Shuffle]_output: 3b80e495
StatefulPartitionedCall/efficientdet-d5/fusion_fpn_cell_1_fnode7/truediv:0: 3c87dfbd
Resize__2004:0: 3d080745
(Unnamed Layer* 931) [Shuffle]_output: 3b6ce08d
StatefulPartitionedCall/efficientdet-d5/fusion_fpn_cell_1_fnode0/truediv_1:0: 3c79b4f5
StatefulPartitionedCall/efficientdet-d5/fusion_fpn_cell_1_fnode0/AddN_1:0: 3cf3e52d
StatefulPartitionedCall/efficientdet-d5/activation_8/Sigmoid:0: 3c001ca4
StatefulPartitionedCall/efficientdet-d5/activation_8/mul_1:0: 3cb0e1bb
StatefulPartitionedCall/efficientdet-d5/fpn_cell_1_fnode0_op_after_combine_3_conv/separable_conv2d/depthwise:0: 3b229366
StatefulPartitionedCall/efficientdet-d5/fpn_cell_1_fnode0_op_after_combine_3_conv/BiasAdd:0: 3af8f289
StatefulPartitionedCall/efficientdet-d5/fpn_cell_1_fnode0_op_after_combine_3_bn/FusedBatchNormV3:0: 3d1ea911
(Unnamed Layer* 940) [Shuffle]_output: 3b2ccaf8
StatefulPartitionedCall/efficientdet-d5/fusion_fpn_cell_1_fnode6/truediv_1:0: 3c547521
Resize__2023:0: 3d22bc33
(Unnamed Layer* 944) [Shuffle]_output: 3b1fe9fb
StatefulPartitionedCall/efficientdet-d5/fusion_fpn_cell_1_fnode1/truediv_1:0: 3c49ac08
StatefulPartitionedCall/efficientdet-d5/fusion_fpn_cell_1_fnode1/AddN_1:0: 3d435104
StatefulPartitionedCall/efficientdet-d5/activation_9/Sigmoid:0: 3c00ca25
StatefulPartitionedCall/efficientdet-d5/activation_9/mul_1:0: 3ce5f22c
StatefulPartitionedCall/efficientdet-d5/fpn_cell_1_fnode1_op_after_combine_2_conv/separable_conv2d/depthwise:0: 3bb58524
StatefulPartitionedCall/efficientdet-d5/fpn_cell_1_fnode1_op_after_combine_2_conv/BiasAdd:0: 3b8bcf39
StatefulPartitionedCall/efficientdet-d5/fpn_cell_1_fnode1_op_after_combine_2_bn/FusedBatchNormV3:0: 3d864a47
(Unnamed Layer* 953) [Shuffle]_output: 3b43154b
StatefulPartitionedCall/efficientdet-d5/fusion_fpn_cell_1_fnode5/truediv_1:0: 3ccb0577
Resize__2042:0: 3d864a47
(Unnamed Layer* 957) [Shuffle]_output: 3b60771a
StatefulPartitionedCall/efficientdet-d5/fusion_fpn_cell_1_fnode2/truediv_1:0: 3ce99959
StatefulPartitionedCall/efficientdet-d5/fusion_fpn_cell_1_fnode2/AddN_1:0: 3d1de613
StatefulPartitionedCall/efficientdet-d5/activation_10/Sigmoid:0: 3c003670
StatefulPartitionedCall/efficientdet-d5/activation_10/mul_1:0: 3ce5fba4
StatefulPartitionedCall/efficientdet-d5/fpn_cell_1_fnode2_op_after_combine_1_conv/separable_conv2d/depthwise:0: 3b8fa41d
StatefulPartitionedCall/efficientdet-d5/fpn_cell_1_fnode2_op_after_combine_1_conv/BiasAdd:0: 3b439339
StatefulPartitionedCall/efficientdet-d5/fpn_cell_1_fnode2_op_after_combine_1_bn/FusedBatchNormV3:0: 3d4ae5a2
(Unnamed Layer* 966) [Shuffle]_output: 3b2b6d86
StatefulPartitionedCall/efficientdet-d5/fusion_fpn_cell_1_fnode4/truediv_1:0: 3c86c609
Resize__2061:0: 3d4ae5a2
(Unnamed Layer* 970) [Shuffle]_output: 3b592ff1
StatefulPartitionedCall/efficientdet-d5/fusion_fpn_cell_1_fnode3/truediv_1:0: 3caabfb4
StatefulPartitionedCall/efficientdet-d5/fusion_fpn_cell_1_fnode3/AddN_1:0: 3d22e0ff
StatefulPartitionedCall/efficientdet-d5/activation_11/Sigmoid:0: 3c00602b
StatefulPartitionedCall/efficientdet-d5/activation_11/mul_1:0: 3d000ab1
StatefulPartitionedCall/efficientdet-d5/fpn_cell_1_fnode3_op_after_combine_0_conv/separable_conv2d/depthwise:0: 3bba36ef
StatefulPartitionedCall/efficientdet-d5/fpn_cell_1_fnode3_op_after_combine_0_conv/BiasAdd:0: 3b9c0636
StatefulPartitionedCall/efficientdet-d5/fpn_cell_1_fnode3_op_after_combine_0_bn/FusedBatchNormV3:0: 3d88ba08
StatefulPartitionedCall/efficientdet-d5/max_pooling2d_6/MaxPool:0: 3d88ba08
(Unnamed Layer* 980) [Shuffle]_output: 3b9b1857
StatefulPartitionedCall/efficientdet-d5/fusion_fpn_cell_2_fnode3/truediv:0: 3d2455a8
(Unnamed Layer* 983) [Shuffle]_output: 3b3428f6
StatefulPartitionedCall/efficientdet-d5/fusion_fpn_cell_1_fnode4/truediv_2:0: 3ccd4a74
(Unnamed Layer* 985) [ElementWise]_output: 3cd6c0ee
StatefulPartitionedCall/efficientdet-d5/fusion_fpn_cell_1_fnode4/AddN_1:0: 3d1b879e
StatefulPartitionedCall/efficientdet-d5/activation_12/Sigmoid:0: 3c01231e
StatefulPartitionedCall/efficientdet-d5/activation_12/mul_1:0: 3d0ec00f
StatefulPartitionedCall/efficientdet-d5/fpn_cell_1_fnode4_op_after_combine_1_conv/separable_conv2d/depthwise:0: 3b8a0905
StatefulPartitionedCall/efficientdet-d5/fpn_cell_1_fnode4_op_after_combine_1_conv/BiasAdd:0: 3b484038
StatefulPartitionedCall/efficientdet-d5/fpn_cell_1_fnode4_op_after_combine_1_bn/FusedBatchNormV3:0: 3d57d183
StatefulPartitionedCall/efficientdet-d5/max_pooling2d_7/MaxPool:0: 3d57d183
(Unnamed Layer* 994) [Shuffle]_output: 3b25b893
StatefulPartitionedCall/efficientdet-d5/fusion_fpn_cell_2_fnode4/truediv:0: 3c8a958f
(Unnamed Layer* 997) [Shuffle]_output: 3b95fb7b
StatefulPartitionedCall/efficientdet-d5/fusion_fpn_cell_2_fnode2/truediv:0: 3cfad875
(Unnamed Layer* 1000) [Shuffle]_output: 3acf9cbf
StatefulPartitionedCall/efficientdet-d5/fusion_fpn_cell_1_fnode5/truediv_2:0: 3c39e191
(Unnamed Layer* 1002) [ElementWise]_output: 3d22df29
StatefulPartitionedCall/efficientdet-d5/fusion_fpn_cell_1_fnode5/AddN_1:0: 3d21d378
StatefulPartitionedCall/efficientdet-d5/activation_13/Sigmoid:0: 3c011788
StatefulPartitionedCall/efficientdet-d5/activation_13/mul_1:0: 3cfe208f
StatefulPartitionedCall/efficientdet-d5/fpn_cell_1_fnode5_op_after_combine_2_conv/separable_conv2d/depthwise:0: 3b88b26f
StatefulPartitionedCall/efficientdet-d5/fpn_cell_1_fnode5_op_after_combine_2_conv/BiasAdd:0: 3b698f86
StatefulPartitionedCall/efficientdet-d5/fpn_cell_1_fnode5_op_after_combine_2_bn/FusedBatchNormV3:0: 3d72b1f2
StatefulPartitionedCall/efficientdet-d5/max_pooling2d_8/MaxPool:0: 3d72b1f2
(Unnamed Layer* 1011) [Shuffle]_output: 3b3ed964
StatefulPartitionedCall/efficientdet-d5/fusion_fpn_cell_2_fnode5/truediv:0: 3cb37914
(Unnamed Layer* 1014) [Shuffle]_output: 3b8a0012
StatefulPartitionedCall/efficientdet-d5/fusion_fpn_cell_2_fnode1/truediv:0: 3d01c639
(Unnamed Layer* 1017) [Shuffle]_output: 3b2bc23a
StatefulPartitionedCall/efficientdet-d5/fusion_fpn_cell_1_fnode6/truediv_2:0: 3cabcfb1
(Unnamed Layer* 1019) [ElementWise]_output: 3cab164f
StatefulPartitionedCall/efficientdet-d5/fusion_fpn_cell_1_fnode6/AddN_1:0: 3d02723b
StatefulPartitionedCall/efficientdet-d5/activation_14/Sigmoid:0: 3bfce64f
StatefulPartitionedCall/efficientdet-d5/activation_14/mul_1:0: 3ce65e53
StatefulPartitionedCall/efficientdet-d5/fpn_cell_1_fnode6_op_after_combine_3_conv/separable_conv2d/depthwise:0: 3b14c9c3
StatefulPartitionedCall/efficientdet-d5/fpn_cell_1_fnode6_op_after_combine_3_conv/BiasAdd:0: 3ad1ff6c
StatefulPartitionedCall/efficientdet-d5/fpn_cell_1_fnode6_op_after_combine_3_bn/FusedBatchNormV3:0: 3d12de00
StatefulPartitionedCall/efficientdet-d5/max_pooling2d_9/MaxPool:0: 3d12de00
(Unnamed Layer* 1028) [Shuffle]_output: 3b2aed8a
StatefulPartitionedCall/efficientdet-d5/fusion_fpn_cell_2_fnode6/truediv:0: 3c428afd
(Unnamed Layer* 1031) [Shuffle]_output: 3b859bf6
StatefulPartitionedCall/efficientdet-d5/fusion_fpn_cell_2_fnode0/truediv:0: 3c981182
(Unnamed Layer* 1034) [Shuffle]_output: 3b812c48
StatefulPartitionedCall/efficientdet-d5/fusion_fpn_cell_1_fnode7/truediv_1:0: 3c963e69
StatefulPartitionedCall/efficientdet-d5/fusion_fpn_cell_1_fnode7/AddN_1:0: 3d0819ff
StatefulPartitionedCall/efficientdet-d5/activation_15/Sigmoid:0: 3c00293c
StatefulPartitionedCall/efficientdet-d5/activation_15/mul_1:0: 3cd10860
StatefulPartitionedCall/efficientdet-d5/fpn_cell_1_fnode7_op_after_combine_4_conv/separable_conv2d/depthwise:0: 3b06a54a
StatefulPartitionedCall/efficientdet-d5/fpn_cell_1_fnode7_op_after_combine_4_conv/BiasAdd:0: 3ac69833
StatefulPartitionedCall/efficientdet-d5/fpn_cell_1_fnode7_op_after_combine_4_bn/FusedBatchNormV3:0: 3cf472cc
(Unnamed Layer* 1043) [Shuffle]_output: 3b7e72b6
StatefulPartitionedCall/efficientdet-d5/fusion_fpn_cell_2_fnode7/truediv:0: 3c710271
Resize__2124:0: 3cf472cc
(Unnamed Layer* 1047) [Shuffle]_output: 3b78e9cb
StatefulPartitionedCall/efficientdet-d5/fusion_fpn_cell_2_fnode0/truediv_1:0: 3c6bc459
StatefulPartitionedCall/efficientdet-d5/fusion_fpn_cell_2_fnode0/AddN_1:0: 3ccab690
StatefulPartitionedCall/efficientdet-d5/activation_16/Sigmoid:0: 3bf0bd23
StatefulPartitionedCall/efficientdet-d5/activation_16/mul_1:0: 3c87248a
StatefulPartitionedCall/efficientdet-d5/fpn_cell_2_fnode0_op_after_combine_3_conv/separable_conv2d/depthwise:0: 3ac7741b
StatefulPartitionedCall/efficientdet-d5/fpn_cell_2_fnode0_op_after_combine_3_conv/BiasAdd:0: 3a8fcb37
StatefulPartitionedCall/efficientdet-d5/fpn_cell_2_fnode0_op_after_combine_3_bn/FusedBatchNormV3:0: 3cd6d00e
(Unnamed Layer* 1056) [Shuffle]_output: 3b2f759b
StatefulPartitionedCall/efficientdet-d5/fusion_fpn_cell_2_fnode6/truediv_1:0: 3c120b52
Resize__2143:0: 3cdf58b7
(Unnamed Layer* 1060) [Shuffle]_output: 3b70218b
StatefulPartitionedCall/efficientdet-d5/fusion_fpn_cell_2_fnode1/truediv_1:0: 3c4fd073
StatefulPartitionedCall/efficientdet-d5/fusion_fpn_cell_2_fnode1/AddN_1:0: 3d0b69e8
StatefulPartitionedCall/efficientdet-d5/activation_17/Sigmoid:0: 3c00b20f
StatefulPartitionedCall/efficientdet-d5/activation_17/mul_1:0: 3cb3694b
StatefulPartitionedCall/efficientdet-d5/fpn_cell_2_fnode1_op_after_combine_2_conv/separable_conv2d/depthwise:0: 3b344bfd
StatefulPartitionedCall/efficientdet-d5/fpn_cell_2_fnode1_op_after_combine_2_conv/BiasAdd:0: 3b01afea
StatefulPartitionedCall/efficientdet-d5/fpn_cell_2_fnode1_op_after_combine_2_bn/FusedBatchNormV3:0: 3d30752f
(Unnamed Layer* 1069) [Shuffle]_output: 3b28bc44
StatefulPartitionedCall/efficientdet-d5/fusion_fpn_cell_2_fnode5/truediv_1:0: 3c66bdb1
Resize__2162:0: 3d30752f
(Unnamed Layer* 1073) [Shuffle]_output: 3b582aab
StatefulPartitionedCall/efficientdet-d5/fusion_fpn_cell_2_fnode2/truediv_1:0: 3c93cd0c
StatefulPartitionedCall/efficientdet-d5/fusion_fpn_cell_2_fnode2/AddN_1:0: 3d0fe866
StatefulPartitionedCall/efficientdet-d5/activation_18/Sigmoid:0: 3bff091b
StatefulPartitionedCall/efficientdet-d5/activation_18/mul_1:0: 3ce6f587
StatefulPartitionedCall/efficientdet-d5/fpn_cell_2_fnode2_op_after_combine_1_conv/separable_conv2d/depthwise:0: 3b6bf626
StatefulPartitionedCall/efficientdet-d5/fpn_cell_2_fnode2_op_after_combine_1_conv/BiasAdd:0: 3b245f61
StatefulPartitionedCall/efficientdet-d5/fpn_cell_2_fnode2_op_after_combine_1_bn/FusedBatchNormV3:0: 3d2f3fa3
(Unnamed Layer* 1082) [Shuffle]_output: 3b23e88f
StatefulPartitionedCall/efficientdet-d5/fusion_fpn_cell_2_fnode4/truediv_1:0: 3c5e9ab5
Resize__2181:0: 3d2f3fa3
(Unnamed Layer* 1086) [Shuffle]_output: 3b4df0e6
StatefulPartitionedCall/efficientdet-d5/fusion_fpn_cell_2_fnode3/truediv_1:0: 3c8bd82b
StatefulPartitionedCall/efficientdet-d5/fusion_fpn_cell_2_fnode3/AddN_1:0: 3d368ead
StatefulPartitionedCall/efficientdet-d5/activation_19/Sigmoid:0: 3c00bb62
StatefulPartitionedCall/efficientdet-d5/activation_19/mul_1:0: 3d1118d2
StatefulPartitionedCall/efficientdet-d5/fpn_cell_2_fnode3_op_after_combine_0_conv/separable_conv2d/depthwise:0: 3bc10254
StatefulPartitionedCall/efficientdet-d5/fpn_cell_2_fnode3_op_after_combine_0_conv/BiasAdd:0: 3bb5ee5c
StatefulPartitionedCall/efficientdet-d5/fpn_cell_2_fnode3_op_after_combine_0_bn/FusedBatchNormV3:0: 3d879404
StatefulPartitionedCall/efficientdet-d5/max_pooling2d_10/MaxPool:0: 3d879404
(Unnamed Layer* 1096) [Shuffle]_output: 3b931ed8
StatefulPartitionedCall/efficientdet-d5/fusion_fpn_cell_3_fnode3/truediv:0: 3d1a9356
(Unnamed Layer* 1099) [Shuffle]_output: 3b3a82c9
StatefulPartitionedCall/efficientdet-d5/fusion_fpn_cell_2_fnode4/truediv_2:0: 3cdf45de
(Unnamed Layer* 1101) [ElementWise]_output: 3cb7dfa7
StatefulPartitionedCall/efficientdet-d5/fusion_fpn_cell_2_fnode4/AddN_1:0: 3d1d8ae2
StatefulPartitionedCall/efficientdet-d5/activation_20/Sigmoid:0: 3c001284
StatefulPartitionedCall/efficientdet-d5/activation_20/mul_1:0: 3d0feb5f
StatefulPartitionedCall/efficientdet-d5/fpn_cell_2_fnode4_op_after_combine_1_conv/separable_conv2d/depthwise:0: 3bb85aef
StatefulPartitionedCall/efficientdet-d5/fpn_cell_2_fnode4_op_after_combine_1_conv/BiasAdd:0: 3b84d236
StatefulPartitionedCall/efficientdet-d5/fpn_cell_2_fnode4_op_after_combine_1_bn/FusedBatchNormV3:0: 3d6a3fc7
StatefulPartitionedCall/efficientdet-d5/max_pooling2d_11/MaxPool:0: 3d6a3fc7
(Unnamed Layer* 1110) [Shuffle]_output: 3b247e35
StatefulPartitionedCall/efficientdet-d5/fusion_fpn_cell_3_fnode4/truediv:0: 3c954dfa
(Unnamed Layer* 1113) [Shuffle]_output: 3b9392b4
StatefulPartitionedCall/efficientdet-d5/fusion_fpn_cell_3_fnode2/truediv:0: 3d05f26c
(Unnamed Layer* 1116) [Shuffle]_output: 3b1c8e3e
StatefulPartitionedCall/efficientdet-d5/fusion_fpn_cell_2_fnode5/truediv_2:0: 3c95f893
(Unnamed Layer* 1118) [ElementWise]_output: 3cdf3389
StatefulPartitionedCall/efficientdet-d5/fusion_fpn_cell_2_fnode5/AddN_1:0: 3cfd1386
StatefulPartitionedCall/efficientdet-d5/activation_21/Sigmoid:0: 3c00bb90
StatefulPartitionedCall/efficientdet-d5/activation_21/mul_1:0: 3cbfa0d3
StatefulPartitionedCall/efficientdet-d5/fpn_cell_2_fnode5_op_after_combine_2_conv/separable_conv2d/depthwise:0: 3b63c654
StatefulPartitionedCall/efficientdet-d5/fpn_cell_2_fnode5_op_after_combine_2_conv/BiasAdd:0: 3b091fc6
StatefulPartitionedCall/efficientdet-d5/fpn_cell_2_fnode5_op_after_combine_2_bn/FusedBatchNormV3:0: 3d267a8d
StatefulPartitionedCall/efficientdet-d5/max_pooling2d_12/MaxPool:0: 3d267a8d
(Unnamed Layer* 1127) [Shuffle]_output: 3b2e1084
StatefulPartitionedCall/efficientdet-d5/fusion_fpn_cell_3_fnode5/truediv:0: 3c609142
(Unnamed Layer* 1130) [Shuffle]_output: 3b79a3f4
StatefulPartitionedCall/efficientdet-d5/fusion_fpn_cell_3_fnode1/truediv:0: 3ca10911
(Unnamed Layer* 1133) [Shuffle]_output: 3b29c0c5
StatefulPartitionedCall/efficientdet-d5/fusion_fpn_cell_2_fnode6/truediv_2:0: 3c76da37
(Unnamed Layer* 1135) [ElementWise]_output: 3c816e27
StatefulPartitionedCall/efficientdet-d5/fusion_fpn_cell_2_fnode6/AddN_1:0: 3ca81d6c
StatefulPartitionedCall/efficientdet-d5/activation_22/Sigmoid:0: 3bed8bac
StatefulPartitionedCall/efficientdet-d5/activation_22/mul_1:0: 3c8692e6
StatefulPartitionedCall/efficientdet-d5/fpn_cell_2_fnode6_op_after_combine_3_conv/separable_conv2d/depthwise:0: 3ab6fb12
StatefulPartitionedCall/efficientdet-d5/fpn_cell_2_fnode6_op_after_combine_3_conv/BiasAdd:0: 3a90bbe6
StatefulPartitionedCall/efficientdet-d5/fpn_cell_2_fnode6_op_after_combine_3_bn/FusedBatchNormV3:0: 3ce3887c
StatefulPartitionedCall/efficientdet-d5/max_pooling2d_13/MaxPool:0: 3ce3887c
(Unnamed Layer* 1144) [Shuffle]_output: 3b2c1b3c
StatefulPartitionedCall/efficientdet-d5/fusion_fpn_cell_3_fnode6/truediv:0: 3c17bc7c
(Unnamed Layer* 1147) [Shuffle]_output: 3b84a19e
StatefulPartitionedCall/efficientdet-d5/fusion_fpn_cell_3_fnode0/truediv:0: 3c69dde5
(Unnamed Layer* 1150) [Shuffle]_output: 3b82d780
StatefulPartitionedCall/efficientdet-d5/fusion_fpn_cell_2_fnode7/truediv_1:0: 3c69fe4b
StatefulPartitionedCall/efficientdet-d5/fusion_fpn_cell_2_fnode7/AddN_1:0: 3c94f811
StatefulPartitionedCall/efficientdet-d5/activation_23/Sigmoid:0: 3bedbbc6
StatefulPartitionedCall/efficientdet-d5/activation_23/mul_1:0: 3c8272dc
StatefulPartitionedCall/efficientdet-d5/fpn_cell_2_fnode7_op_after_combine_4_conv/separable_conv2d/depthwise:0: 3aa5ec16
StatefulPartitionedCall/efficientdet-d5/fpn_cell_2_fnode7_op_after_combine_4_conv/BiasAdd:0: 3a860134
StatefulPartitionedCall/efficientdet-d5/fpn_cell_2_fnode7_op_after_combine_4_bn/FusedBatchNormV3:0: 3cb886bb
(Unnamed Layer* 1159) [Shuffle]_output: 3b801e26
StatefulPartitionedCall/efficientdet-d5/fusion_fpn_cell_3_fnode7/truediv:0: 3c37355a
Resize__2244:0: 3cc720dd
(Unnamed Layer* 1163) [Shuffle]_output: 3b7ade78
StatefulPartitionedCall/efficientdet-d5/fusion_fpn_cell_3_fnode0/truediv_1:0: 3c4190c5
StatefulPartitionedCall/efficientdet-d5/fusion_fpn_cell_3_fnode0/AddN_1:0: 3c967849
StatefulPartitionedCall/efficientdet-d5/activation_24/Sigmoid:0: 3be59fe9
StatefulPartitionedCall/efficientdet-d5/activation_24/mul_1:0: 3c470274
StatefulPartitionedCall/efficientdet-d5/fpn_cell_3_fnode0_op_after_combine_3_conv/separable_conv2d/depthwise:0: 3a7926d5
StatefulPartitionedCall/efficientdet-d5/fpn_cell_3_fnode0_op_after_combine_3_conv/BiasAdd:0: 3a3bbfc5
StatefulPartitionedCall/efficientdet-d5/fpn_cell_3_fnode0_op_after_combine_3_bn/FusedBatchNormV3:0: 3ca010c8
(Unnamed Layer* 1172) [Shuffle]_output: 3b307f71
StatefulPartitionedCall/efficientdet-d5/fusion_fpn_cell_3_fnode6/truediv_1:0: 3bdaef55
Resize__2263:0: 3cb40fdc
(Unnamed Layer* 1176) [Shuffle]_output: 3b853ee1
StatefulPartitionedCall/efficientdet-d5/fusion_fpn_cell_3_fnode1/truediv_1:0: 3c39ee6d
StatefulPartitionedCall/efficientdet-d5/fusion_fpn_cell_3_fnode1/AddN_1:0: 3cc09368
StatefulPartitionedCall/efficientdet-d5/activation_25/Sigmoid:0: 3bf554a0
StatefulPartitionedCall/efficientdet-d5/activation_25/mul_1:0: 3c875b35
StatefulPartitionedCall/efficientdet-d5/fpn_cell_3_fnode1_op_after_combine_2_conv/separable_conv2d/depthwise:0: 3adecb1e
StatefulPartitionedCall/efficientdet-d5/fpn_cell_3_fnode1_op_after_combine_2_conv/BiasAdd:0: 3a93ffe7
StatefulPartitionedCall/efficientdet-d5/fpn_cell_3_fnode1_op_after_combine_2_bn/FusedBatchNormV3:0: 3cf82230
(Unnamed Layer* 1185) [Shuffle]_output: 3b286370
StatefulPartitionedCall/efficientdet-d5/fusion_fpn_cell_3_fnode5/truediv_1:0: 3c21e646
Resize__2282:0: 3cf82230
(Unnamed Layer* 1189) [Shuffle]_output: 3b5cfc39
StatefulPartitionedCall/efficientdet-d5/fusion_fpn_cell_3_fnode2/truediv_1:0: 3c54782f
StatefulPartitionedCall/efficientdet-d5/fusion_fpn_cell_3_fnode2/AddN_1:0: 3d08f944
StatefulPartitionedCall/efficientdet-d5/activation_26/Sigmoid:0: 3bff0660
StatefulPartitionedCall/efficientdet-d5/activation_26/mul_1:0: 3cbfb7ee
StatefulPartitionedCall/efficientdet-d5/fpn_cell_3_fnode2_op_after_combine_1_conv/separable_conv2d/depthwise:0: 3b61589c
StatefulPartitionedCall/efficientdet-d5/fpn_cell_3_fnode2_op_after_combine_1_conv/BiasAdd:0: 3b4d2d55
StatefulPartitionedCall/efficientdet-d5/fpn_cell_3_fnode2_op_after_combine_1_bn/FusedBatchNormV3:0: 3d452d84
(Unnamed Layer* 1198) [Shuffle]_output: 3b1db709
StatefulPartitionedCall/efficientdet-d5/fusion_fpn_cell_3_fnode4/truediv_1:0: 3c70fed2
Resize__2301:0: 3d452d84
(Unnamed Layer* 1202) [Shuffle]_output: 3b5de3fb
StatefulPartitionedCall/efficientdet-d5/fusion_fpn_cell_3_fnode3/truediv_1:0: 3ca9877b
StatefulPartitionedCall/efficientdet-d5/fusion_fpn_cell_3_fnode3/AddN_1:0: 3d365e36
StatefulPartitionedCall/efficientdet-d5/activation_27/Sigmoid:0: 3c00a8b1
StatefulPartitionedCall/efficientdet-d5/activation_27/mul_1:0: 3d00b029
StatefulPartitionedCall/efficientdet-d5/fpn_cell_3_fnode3_op_after_combine_0_conv/separable_conv2d/depthwise:0: 3bb186c8
StatefulPartitionedCall/efficientdet-d5/fpn_cell_3_fnode3_op_after_combine_0_conv/BiasAdd:0: 3bb73271
StatefulPartitionedCall/efficientdet-d5/fpn_cell_3_fnode3_op_after_combine_0_bn/FusedBatchNormV3:0: 3d8552a5
StatefulPartitionedCall/efficientdet-d5/max_pooling2d_14/MaxPool:0: 3d8552a5
(Unnamed Layer* 1212) [Shuffle]_output: 3b945eda
StatefulPartitionedCall/efficientdet-d5/fusion_fpn_cell_4_fnode3/truediv:0: 3d194bb0
(Unnamed Layer* 1215) [Shuffle]_output: 3b41eea7
StatefulPartitionedCall/efficientdet-d5/fusion_fpn_cell_3_fnode4/truediv_2:0: 3cd7809d
(Unnamed Layer* 1217) [ElementWise]_output: 3cb80472
StatefulPartitionedCall/efficientdet-d5/fusion_fpn_cell_3_fnode4/AddN_1:0: 3d0d5409
StatefulPartitionedCall/efficientdet-d5/activation_28/Sigmoid:0: 3c0089ed
StatefulPartitionedCall/efficientdet-d5/activation_28/mul_1:0: 3d017c5e
StatefulPartitionedCall/efficientdet-d5/fpn_cell_3_fnode4_op_after_combine_1_conv/separable_conv2d/depthwise:0: 3baaa2a8
StatefulPartitionedCall/efficientdet-d5/fpn_cell_3_fnode4_op_after_combine_1_conv/BiasAdd:0: 3b891694
StatefulPartitionedCall/efficientdet-d5/fpn_cell_3_fnode4_op_after_combine_1_bn/FusedBatchNormV3:0: 3d5837d0
StatefulPartitionedCall/efficientdet-d5/max_pooling2d_15/MaxPool:0: 3d5837d0
(Unnamed Layer* 1226) [Shuffle]_output: 3b2f1a52
StatefulPartitionedCall/efficientdet-d5/fusion_fpn_cell_4_fnode4/truediv:0: 3c92b36e
(Unnamed Layer* 1229) [Shuffle]_output: 3b88e7e9
StatefulPartitionedCall/efficientdet-d5/fusion_fpn_cell_4_fnode2/truediv:0: 3ce5662d
(Unnamed Layer* 1232) [Shuffle]_output: 3b2daffa
StatefulPartitionedCall/efficientdet-d5/fusion_fpn_cell_3_fnode5/truediv_2:0: 3c93c486
(Unnamed Layer* 1234) [ElementWise]_output: 3c8fb817
StatefulPartitionedCall/efficientdet-d5/fusion_fpn_cell_3_fnode5/AddN_1:0: 3cc55dea
StatefulPartitionedCall/efficientdet-d5/activation_29/Sigmoid:0: 3bf70d99
StatefulPartitionedCall/efficientdet-d5/activation_29/mul_1:0: 3cbec28e
StatefulPartitionedCall/efficientdet-d5/fpn_cell_3_fnode5_op_after_combine_2_conv/separable_conv2d/depthwise:0: 3b296dd3
StatefulPartitionedCall/efficientdet-d5/fpn_cell_3_fnode5_op_after_combine_2_conv/BiasAdd:0: 3b00c057
StatefulPartitionedCall/efficientdet-d5/fpn_cell_3_fnode5_op_after_combine_2_bn/FusedBatchNormV3:0: 3d08c80e
StatefulPartitionedCall/efficientdet-d5/max_pooling2d_16/MaxPool:0: 3d08c80e
(Unnamed Layer* 1243) [Shuffle]_output: 3b22bd8b
StatefulPartitionedCall/efficientdet-d5/fusion_fpn_cell_4_fnode5/truediv:0: 3c2c8125
(Unnamed Layer* 1246) [Shuffle]_output: 3b76cde0
StatefulPartitionedCall/efficientdet-d5/fusion_fpn_cell_4_fnode1/truediv:0: 3c82ce54
(Unnamed Layer* 1249) [Shuffle]_output: 3b27893d
StatefulPartitionedCall/efficientdet-d5/fusion_fpn_cell_3_fnode6/truediv_2:0: 3c4585a9
(Unnamed Layer* 1251) [ElementWise]_output: 3c42f02b
StatefulPartitionedCall/efficientdet-d5/fusion_fpn_cell_3_fnode6/AddN_1:0: 3c845249
StatefulPartitionedCall/efficientdet-d5/activation_30/Sigmoid:0: 3be1f1f6
StatefulPartitionedCall/efficientdet-d5/activation_30/mul_1:0: 3c480bb3
StatefulPartitionedCall/efficientdet-d5/fpn_cell_3_fnode6_op_after_combine_3_conv/separable_conv2d/depthwise:0: 3a92127b
StatefulPartitionedCall/efficientdet-d5/fpn_cell_3_fnode6_op_after_combine_3_conv/BiasAdd:0: 3a551da3
StatefulPartitionedCall/efficientdet-d5/fpn_cell_3_fnode6_op_after_combine_3_bn/FusedBatchNormV3:0: 3c993473
StatefulPartitionedCall/efficientdet-d5/max_pooling2d_17/MaxPool:0: 3c993473
(Unnamed Layer* 1260) [Shuffle]_output: 3b284462
StatefulPartitionedCall/efficientdet-d5/fusion_fpn_cell_4_fnode6/truediv:0: 3bc7c765
(Unnamed Layer* 1263) [Shuffle]_output: 3b876a02
StatefulPartitionedCall/efficientdet-d5/fusion_fpn_cell_4_fnode0/truediv:0: 3c20c5fe
(Unnamed Layer* 1266) [Shuffle]_output: 3b81f2b4
StatefulPartitionedCall/efficientdet-d5/fusion_fpn_cell_3_fnode7/truediv_1:0: 3c1b6081
StatefulPartitionedCall/efficientdet-d5/fusion_fpn_cell_3_fnode7/AddN_1:0: 3c6da6fa
StatefulPartitionedCall/efficientdet-d5/activation_31/Sigmoid:0: 3be75247
StatefulPartitionedCall/efficientdet-d5/activation_31/mul_1:0: 3c3d6206
StatefulPartitionedCall/efficientdet-d5/fpn_cell_3_fnode7_op_after_combine_4_conv/separable_conv2d/depthwise:0: 3a724132
StatefulPartitionedCall/efficientdet-d5/fpn_cell_3_fnode7_op_after_combine_4_conv/BiasAdd:0: 3a227d6e
StatefulPartitionedCall/efficientdet-d5/fpn_cell_3_fnode7_op_after_combine_4_bn/FusedBatchNormV3:0: 3c8b2a83
(Unnamed Layer* 1275) [Shuffle]_output: 3b802de3
StatefulPartitionedCall/efficientdet-d5/fusion_fpn_cell_4_fnode7/truediv:0: 3c0a3d0a
Resize__2364:0: 3c8b2a83
(Unnamed Layer* 1279) [Shuffle]_output: 3b754dae
StatefulPartitionedCall/efficientdet-d5/fusion_fpn_cell_4_fnode0/truediv_1:0: 3c0446f2
StatefulPartitionedCall/efficientdet-d5/fusion_fpn_cell_4_fnode0/AddN_1:0: 3c471b47
StatefulPartitionedCall/efficientdet-d5/activation_32/Sigmoid:0: 3bd43aef
StatefulPartitionedCall/efficientdet-d5/activation_32/mul_1:0: 3c10d213
StatefulPartitionedCall/efficientdet-d5/fpn_cell_4_fnode0_op_after_combine_3_conv/separable_conv2d/depthwise:0: 3a498f7e
StatefulPartitionedCall/efficientdet-d5/fpn_cell_4_fnode0_op_after_combine_3_conv/BiasAdd:0: 3a037f56
StatefulPartitionedCall/efficientdet-d5/fpn_cell_4_fnode0_op_after_combine_3_bn/FusedBatchNormV3:0: 3c6fe54e
(Unnamed Layer* 1288) [Shuffle]_output: 3b2fcba5
StatefulPartitionedCall/efficientdet-d5/fusion_fpn_cell_4_fnode6/truediv_1:0: 3ba368e5
Resize__2383:0: 3c6fe54e
(Unnamed Layer* 1292) [Shuffle]_output: 3b86a9ea
StatefulPartitionedCall/efficientdet-d5/fusion_fpn_cell_4_fnode1/truediv_1:0: 3bfa5a16
StatefulPartitionedCall/efficientdet-d5/fusion_fpn_cell_4_fnode1/AddN_1:0: 3c92b56c
StatefulPartitionedCall/efficientdet-d5/activation_33/Sigmoid:0: 3be7e6b4
StatefulPartitionedCall/efficientdet-d5/activation_33/mul_1:0: 3c7f8152
StatefulPartitionedCall/efficientdet-d5/fpn_cell_4_fnode1_op_after_combine_2_conv/separable_conv2d/depthwise:0: 3ade2981
StatefulPartitionedCall/efficientdet-d5/fpn_cell_4_fnode1_op_after_combine_2_conv/BiasAdd:0: 3ab2c09a
StatefulPartitionedCall/efficientdet-d5/fpn_cell_4_fnode1_op_after_combine_2_bn/FusedBatchNormV3:0: 3ce5ae45
(Unnamed Layer* 1301) [Shuffle]_output: 3b1c9eed
StatefulPartitionedCall/efficientdet-d5/fusion_fpn_cell_4_fnode5/truediv_1:0: 3c0b6308
Resize__2402:0: 3ce5ae45
(Unnamed Layer* 1305) [Shuffle]_output: 3b7251e2
StatefulPartitionedCall/efficientdet-d5/fusion_fpn_cell_4_fnode2/truediv_1:0: 3c57a7e9
StatefulPartitionedCall/efficientdet-d5/fusion_fpn_cell_4_fnode2/AddN_1:0: 3cfac94c
StatefulPartitionedCall/efficientdet-d5/activation_34/Sigmoid:0: 3bfd9f96
StatefulPartitionedCall/efficientdet-d5/activation_34/mul_1:0: 3cc07ebf
StatefulPartitionedCall/efficientdet-d5/fpn_cell_4_fnode2_op_after_combine_1_conv/separable_conv2d/depthwise:0: 3b91fdbb
StatefulPartitionedCall/efficientdet-d5/fpn_cell_4_fnode2_op_after_combine_1_conv/BiasAdd:0: 3b3b14f8
StatefulPartitionedCall/efficientdet-d5/fpn_cell_4_fnode2_op_after_combine_1_bn/FusedBatchNormV3:0: 3d34a49b
(Unnamed Layer* 1314) [Shuffle]_output: 3b1bce65
StatefulPartitionedCall/efficientdet-d5/fusion_fpn_cell_4_fnode4/truediv_1:0: 3c5a1d33
Resize__2421:0: 3d34a49b
(Unnamed Layer* 1318) [Shuffle]_output: 3b5b63ed
StatefulPartitionedCall/efficientdet-d5/fusion_fpn_cell_4_fnode3/truediv_1:0: 3c99901c
StatefulPartitionedCall/efficientdet-d5/fusion_fpn_cell_4_fnode3/AddN_1:0: 3d2afdd3
StatefulPartitionedCall/efficientdet-d5/activation_35/Sigmoid:0: 3c00521f
StatefulPartitionedCall/efficientdet-d5/activation_35/mul_1:0: 3ce64c0c
StatefulPartitionedCall/efficientdet-d5/fpn_cell_4_fnode3_op_after_combine_0_conv/separable_conv2d/depthwise:0: 3bbdf81b
StatefulPartitionedCall/efficientdet-d5/fpn_cell_4_fnode3_op_after_combine_0_conv/BiasAdd:0: 3ba86738
StatefulPartitionedCall/efficientdet-d5/fpn_cell_4_fnode3_op_after_combine_0_bn/FusedBatchNormV3:0: 3d8a2756
StatefulPartitionedCall/efficientdet-d5/max_pooling2d_18/MaxPool:0: 3d8a2756
(Unnamed Layer* 1328) [Shuffle]_output: 3b8eb4ef
StatefulPartitionedCall/efficientdet-d5/fusion_fpn_cell_5_fnode3/truediv:0: 3d18c952
(Unnamed Layer* 1331) [Shuffle]_output: 3b393b31
StatefulPartitionedCall/efficientdet-d5/fusion_fpn_cell_4_fnode4/truediv_2:0: 3ccd9f10
(Unnamed Layer* 1333) [ElementWise]_output: 3cbac5b5
StatefulPartitionedCall/efficientdet-d5/fusion_fpn_cell_4_fnode4/AddN_1:0: 3d0f7613
StatefulPartitionedCall/efficientdet-d5/activation_36/Sigmoid:0: 3bffc02f
StatefulPartitionedCall/efficientdet-d5/activation_36/mul_1:0: 3ce6b463
StatefulPartitionedCall/efficientdet-d5/fpn_cell_4_fnode4_op_after_combine_1_conv/separable_conv2d/depthwise:0: 3bb45150
StatefulPartitionedCall/efficientdet-d5/fpn_cell_4_fnode4_op_after_combine_1_conv/BiasAdd:0: 3b96d406
StatefulPartitionedCall/efficientdet-d5/fpn_cell_4_fnode4_op_after_combine_1_bn/FusedBatchNormV3:0: 3d625145
StatefulPartitionedCall/efficientdet-d5/max_pooling2d_19/MaxPool:0: 3d625145
(Unnamed Layer* 1342) [Shuffle]_output: 3b30ef56
StatefulPartitionedCall/efficientdet-d5/fusion_fpn_cell_5_fnode4/truediv:0: 3c9b28ec
(Unnamed Layer* 1345) [Shuffle]_output: 3b841b5a
StatefulPartitionedCall/efficientdet-d5/fusion_fpn_cell_5_fnode2/truediv:0: 3ce7b287
(Unnamed Layer* 1348) [Shuffle]_output: 3b44c76b
StatefulPartitionedCall/efficientdet-d5/fusion_fpn_cell_4_fnode5/truediv_2:0: 3cd48b53
(Unnamed Layer* 1350) [ElementWise]_output: 3c6752aa
StatefulPartitionedCall/efficientdet-d5/fusion_fpn_cell_4_fnode5/AddN_1:0: 3ce184b0
StatefulPartitionedCall/efficientdet-d5/activation_37/Sigmoid:0: 3bfb8bbb
StatefulPartitionedCall/efficientdet-d5/activation_37/mul_1:0: 3cd295d7
StatefulPartitionedCall/efficientdet-d5/fpn_cell_4_fnode5_op_after_combine_2_conv/separable_conv2d/depthwise:0: 3b79186a
StatefulPartitionedCall/efficientdet-d5/fpn_cell_4_fnode5_op_after_combine_2_conv/BiasAdd:0: 3b4aa5b9
StatefulPartitionedCall/efficientdet-d5/fpn_cell_4_fnode5_op_after_combine_2_bn/FusedBatchNormV3:0: 3d13c7c7
StatefulPartitionedCall/efficientdet-d5/max_pooling2d_20/MaxPool:0: 3d13c7c7
(Unnamed Layer* 1359) [Shuffle]_output: 3b2b647e
StatefulPartitionedCall/efficientdet-d5/fusion_fpn_cell_5_fnode5/truediv:0: 3c4448e3
(Unnamed Layer* 1362) [Shuffle]_output: 3b8334ad
StatefulPartitionedCall/efficientdet-d5/fusion_fpn_cell_5_fnode1/truediv:0: 3c9642ed
(Unnamed Layer* 1365) [Shuffle]_output: 3b2c13e2
StatefulPartitionedCall/efficientdet-d5/fusion_fpn_cell_4_fnode6/truediv_2:0: 3c4dff3e
(Unnamed Layer* 1367) [ElementWise]_output: 3beec7e7
StatefulPartitionedCall/efficientdet-d5/fusion_fpn_cell_4_fnode6/AddN_1:0: 3c8248ed
StatefulPartitionedCall/efficientdet-d5/activation_38/Sigmoid:0: 3be2b97e
StatefulPartitionedCall/efficientdet-d5/activation_38/mul_1:0: 3c623b9b
StatefulPartitionedCall/efficientdet-d5/fpn_cell_4_fnode6_op_after_combine_3_conv/separable_conv2d/depthwise:0: 3acbde4c
StatefulPartitionedCall/efficientdet-d5/fpn_cell_4_fnode6_op_after_combine_3_conv/BiasAdd:0: 3a7e550c
StatefulPartitionedCall/efficientdet-d5/fpn_cell_4_fnode6_op_after_combine_3_bn/FusedBatchNormV3:0: 3cb822d4
StatefulPartitionedCall/efficientdet-d5/max_pooling2d_21/MaxPool:0: 3cb822d4
(Unnamed Layer* 1376) [Shuffle]_output: 3b2a7ca2
StatefulPartitionedCall/efficientdet-d5/fusion_fpn_cell_5_fnode6/truediv:0: 3bf347d4
(Unnamed Layer* 1379) [Shuffle]_output: 3b88e282
StatefulPartitionedCall/efficientdet-d5/fusion_fpn_cell_5_fnode0/truediv:0: 3c4354ce
(Unnamed Layer* 1382) [Shuffle]_output: 3b81e2f8
StatefulPartitionedCall/efficientdet-d5/fusion_fpn_cell_4_fnode7/truediv_1:0: 3c44d4a6
StatefulPartitionedCall/efficientdet-d5/fusion_fpn_cell_4_fnode7/AddN_1:0: 3c644570
StatefulPartitionedCall/efficientdet-d5/activation_39/Sigmoid:0: 3be6362b
StatefulPartitionedCall/efficientdet-d5/activation_39/mul_1:0: 3c391c10
StatefulPartitionedCall/efficientdet-d5/fpn_cell_4_fnode7_op_after_combine_4_conv/separable_conv2d/depthwise:0: 3a8aae66
StatefulPartitionedCall/efficientdet-d5/fpn_cell_4_fnode7_op_after_combine_4_conv/BiasAdd:0: 3a3501a3
StatefulPartitionedCall/efficientdet-d5/fpn_cell_4_fnode7_op_after_combine_4_bn/FusedBatchNormV3:0: 3c99470e
(Unnamed Layer* 1391) [Shuffle]_output: 3b84e608
StatefulPartitionedCall/efficientdet-d5/fusion_fpn_cell_5_fnode7/truediv:0: 3c1ddc95
Resize__2484:0: 3c694ff0
(Unnamed Layer* 1395) [Shuffle]_output: 3b725cb1
StatefulPartitionedCall/efficientdet-d5/fusion_fpn_cell_5_fnode0/truediv_1:0: 3bdb1a95
StatefulPartitionedCall/efficientdet-d5/fusion_fpn_cell_5_fnode0/AddN_1:0: 3c56babe
StatefulPartitionedCall/efficientdet-d5/activation_40/Sigmoid:0: 3bd288a4
StatefulPartitionedCall/efficientdet-d5/activation_40/mul_1:0: 3c195002
StatefulPartitionedCall/efficientdet-d5/fpn_cell_5_fnode0_op_after_combine_3_conv/separable_conv2d/depthwise:0: 3a56aed8
StatefulPartitionedCall/efficientdet-d5/fpn_cell_5_fnode0_op_after_combine_3_conv/BiasAdd:0: 3a30ea1d
StatefulPartitionedCall/efficientdet-d5/fpn_cell_5_fnode0_op_after_combine_3_bn/FusedBatchNormV3:0: 3ca1b006
(Unnamed Layer* 1404) [Shuffle]_output: 3b301e23
StatefulPartitionedCall/efficientdet-d5/fusion_fpn_cell_5_fnode6/truediv_1:0: 3bdcad5f
Resize__2503:0: 3ca1b006
(Unnamed Layer* 1408) [Shuffle]_output: 3b7db85e
StatefulPartitionedCall/efficientdet-d5/fusion_fpn_cell_5_fnode1/truediv_1:0: 3c1ef4f9
StatefulPartitionedCall/efficientdet-d5/fusion_fpn_cell_5_fnode1/AddN_1:0: 3caf3f23
StatefulPartitionedCall/efficientdet-d5/activation_41/Sigmoid:0: 3bf1ce82
StatefulPartitionedCall/efficientdet-d5/activation_41/mul_1:0: 3c999bb3
StatefulPartitionedCall/efficientdet-d5/fpn_cell_5_fnode1_op_after_combine_2_conv/separable_conv2d/depthwise:0: 3b2bcf94
StatefulPartitionedCall/efficientdet-d5/fpn_cell_5_fnode1_op_after_combine_2_conv/BiasAdd:0: 3b0e2200
StatefulPartitionedCall/efficientdet-d5/fpn_cell_5_fnode1_op_after_combine_2_bn/FusedBatchNormV3:0: 3d2b362a
(Unnamed Layer* 1417) [Shuffle]_output: 3b21750d
StatefulPartitionedCall/efficientdet-d5/fusion_fpn_cell_5_fnode5/truediv_1:0: 3c563960
Resize__2522:0: 3d2b362a
(Unnamed Layer* 1421) [Shuffle]_output: 3b7beb02
StatefulPartitionedCall/efficientdet-d5/fusion_fpn_cell_5_fnode2/truediv_1:0: 3ca71fdf
StatefulPartitionedCall/efficientdet-d5/fusion_fpn_cell_5_fnode2/AddN_1:0: 3d23da32
StatefulPartitionedCall/efficientdet-d5/activation_42/Sigmoid:0: 3c00a831
StatefulPartitionedCall/efficientdet-d5/activation_42/mul_1:0: 3ce58d66
StatefulPartitionedCall/efficientdet-d5/fpn_cell_5_fnode2_op_after_combine_1_conv/separable_conv2d/depthwise:0: 3b8c3e15
StatefulPartitionedCall/efficientdet-d5/fpn_cell_5_fnode2_op_after_combine_1_conv/BiasAdd:0: 3b8d543f
StatefulPartitionedCall/efficientdet-d5/fpn_cell_5_fnode2_op_after_combine_1_bn/FusedBatchNormV3:0: 3d620974
(Unnamed Layer* 1430) [Shuffle]_output: 3b2841fa
StatefulPartitionedCall/efficientdet-d5/fusion_fpn_cell_5_fnode4/truediv_1:0: 3c935e1f
Resize__2541:0: 3d620974
(Unnamed Layer* 1434) [Shuffle]_output: 3b66b7ce
StatefulPartitionedCall/efficientdet-d5/fusion_fpn_cell_5_fnode3/truediv_1:0: 3cca12ba
StatefulPartitionedCall/efficientdet-d5/fusion_fpn_cell_5_fnode3/AddN_1:0: 3d40f5e9
StatefulPartitionedCall/efficientdet-d5/activation_43/Sigmoid:0: 3c00cde2
StatefulPartitionedCall/efficientdet-d5/activation_43/mul_1:0: 3d0033ad
StatefulPartitionedCall/efficientdet-d5/fpn_cell_5_fnode3_op_after_combine_0_conv/separable_conv2d/depthwise:0: 3ba54ab9
StatefulPartitionedCall/efficientdet-d5/fpn_cell_5_fnode3_op_after_combine_0_conv/BiasAdd:0: 3bb6393c
StatefulPartitionedCall/efficientdet-d5/fpn_cell_5_fnode3_op_after_combine_0_bn/FusedBatchNormV3:0: 3d85de51
StatefulPartitionedCall/efficientdet-d5/max_pooling2d_22/MaxPool:0: 3d85de51
(Unnamed Layer* 1444) [Shuffle]_output: 3b924303
StatefulPartitionedCall/efficientdet-d5/fusion_fpn_cell_6_fnode3/truediv:0: 3d17bc3e
(Unnamed Layer* 1447) [Shuffle]_output: 3b2af29a
StatefulPartitionedCall/efficientdet-d5/fusion_fpn_cell_5_fnode4/truediv_2:0: 3cbc3e78
(Unnamed Layer* 1449) [ElementWise]_output: 3cdd4d4b
StatefulPartitionedCall/efficientdet-d5/fusion_fpn_cell_5_fnode4/AddN_1:0: 3d1c73c6
StatefulPartitionedCall/efficientdet-d5/activation_44/Sigmoid:0: 3c001f6a
StatefulPartitionedCall/efficientdet-d5/activation_44/mul_1:0: 3d0fd825
StatefulPartitionedCall/efficientdet-d5/fpn_cell_5_fnode4_op_after_combine_1_conv/separable_conv2d/depthwise:0: 3ba4ed7b
StatefulPartitionedCall/efficientdet-d5/fpn_cell_5_fnode4_op_after_combine_1_conv/BiasAdd:0: 3b96f6f1
StatefulPartitionedCall/efficientdet-d5/fpn_cell_5_fnode4_op_after_combine_1_bn/FusedBatchNormV3:0: 3d72cff2
StatefulPartitionedCall/efficientdet-d5/max_pooling2d_23/MaxPool:0: 3d72cff2
(Unnamed Layer* 1458) [Shuffle]_output: 3b33d43b
StatefulPartitionedCall/efficientdet-d5/fusion_fpn_cell_6_fnode4/truediv:0: 3ca930ff
(Unnamed Layer* 1461) [Shuffle]_output: 3b886109
StatefulPartitionedCall/efficientdet-d5/fusion_fpn_cell_6_fnode2/truediv:0: 3d004fc9
(Unnamed Layer* 1464) [Shuffle]_output: 3b374a5f
StatefulPartitionedCall/efficientdet-d5/fusion_fpn_cell_5_fnode5/truediv_2:0: 3cc712e7
(Unnamed Layer* 1466) [ElementWise]_output: 3caa48f1
StatefulPartitionedCall/efficientdet-d5/fusion_fpn_cell_5_fnode5/AddN_1:0: 3d076b0b
StatefulPartitionedCall/efficientdet-d5/activation_45/Sigmoid:0: 3bff5a2b
StatefulPartitionedCall/efficientdet-d5/activation_45/mul_1:0: 3cff3cf1
StatefulPartitionedCall/efficientdet-d5/fpn_cell_5_fnode5_op_after_combine_2_conv/separable_conv2d/depthwise:0: 3b859f08
StatefulPartitionedCall/efficientdet-d5/fpn_cell_5_fnode5_op_after_combine_2_conv/BiasAdd:0: 3b4275b2
StatefulPartitionedCall/efficientdet-d5/fpn_cell_5_fnode5_op_after_combine_2_bn/FusedBatchNormV3:0: 3d3e3e69
StatefulPartitionedCall/efficientdet-d5/max_pooling2d_24/MaxPool:0: 3d3e3e69
(Unnamed Layer* 1475) [Shuffle]_output: 3b27ec51
StatefulPartitionedCall/efficientdet-d5/fusion_fpn_cell_6_fnode5/truediv:0: 3c779205
(Unnamed Layer* 1478) [Shuffle]_output: 3b837e4d
StatefulPartitionedCall/efficientdet-d5/fusion_fpn_cell_6_fnode1/truediv:0: 3cc1dc99
(Unnamed Layer* 1481) [Shuffle]_output: 3b298924
StatefulPartitionedCall/efficientdet-d5/fusion_fpn_cell_5_fnode6/truediv_2:0: 3c8348a6
(Unnamed Layer* 1483) [ElementWise]_output: 3c23c92b
StatefulPartitionedCall/efficientdet-d5/fusion_fpn_cell_5_fnode6/AddN_1:0: 3cb9f901
StatefulPartitionedCall/efficientdet-d5/activation_46/Sigmoid:0: 3bf4cd4a
StatefulPartitionedCall/efficientdet-d5/activation_46/mul_1:0: 3ca384d1
StatefulPartitionedCall/efficientdet-d5/fpn_cell_5_fnode6_op_after_combine_3_conv/separable_conv2d/depthwise:0: 3b1bb516
StatefulPartitionedCall/efficientdet-d5/fpn_cell_5_fnode6_op_after_combine_3_conv/BiasAdd:0: 3ab5e8a0
StatefulPartitionedCall/efficientdet-d5/fpn_cell_5_fnode6_op_after_combine_3_bn/FusedBatchNormV3:0: 3ce506e4
StatefulPartitionedCall/efficientdet-d5/max_pooling2d_25/MaxPool:0: 3ce506e4
(Unnamed Layer* 1492) [Shuffle]_output: 3b3a164f
StatefulPartitionedCall/efficientdet-d5/fusion_fpn_cell_6_fnode6/truediv:0: 3c2523ae
(Unnamed Layer* 1495) [Shuffle]_output: 3b8aa25d
StatefulPartitionedCall/efficientdet-d5/fusion_fpn_cell_6_fnode0/truediv:0: 3c760e74
(Unnamed Layer* 1498) [Shuffle]_output: 3b7a55a4
StatefulPartitionedCall/efficientdet-d5/fusion_fpn_cell_5_fnode7/truediv_1:0: 3c75edbf
StatefulPartitionedCall/efficientdet-d5/fusion_fpn_cell_5_fnode7/AddN_1:0: 3c87d1b5
