TRT-8001-EntropyCalibration2
Input: 3f9849a2
convolution_output20: 3da424a8
conv_0_lrelu/LeakyRelu:0: 3d1b10ef
convolution_output17: 3da7d4a6
conv_1_lrelu/LeakyRelu:0: 3d10c539
convolution_output15: 3d872f0a
conv_2_conv_0_lrelu/LeakyRelu:0: 3d12bdfc
conv_2_conv_0_lrelu/LeakyRelu:0_cropping0: 3cde5100
convolution_output19: 3d8b0812
conv_2_conv_1_lrelu/LeakyRelu:0: 3d1ef293
convolution_output18: 3d6d457a
conv_2_conv_2_lrelu/LeakyRelu:0: 3d1ef293
conv_2_concat_0/concat:0: 3d1ef293
convolution_output16: 3dac7a35
conv_2_conv_3_lrelu/LeakyRelu:0: 3d12bdfc
conv_2_concat_1/concat:0: 3d12bdfc
conv_2_concat_1/concat:0_pooling0: 3d12bdfc
convolution_output11: 3c847427
conv_3_conv_0_lrelu/LeakyRelu:0: 3d0bd4ea
conv_3_conv_0_lrelu/LeakyRelu:0_cropping0: 3c999df8
convolution_output14: 3d51c164
conv_3_conv_1_lrelu/LeakyRelu:0: 3d02718e
convolution_output13: 3d1ec3a5
conv_3_conv_2_lrelu/LeakyRelu:0: 3d02718e
conv_3_concat_0/concat:0: 3d02718e
convolution_output12: 3d95a66a
conv_3_conv_3_lrelu/LeakyRelu:0: 3d0bd4ea
conv_3_concat_1/concat:0: 3d0bd4ea
conv_3_concat_1/concat:0_pooling0: 3d0bd4ea
convolution_output10: 3c8160fa
conv_4_conv_0_lrelu/LeakyRelu:0: 3ce88239
conv_4_conv_0_lrelu/LeakyRelu:0_cropping0: 3cdb8841
convolution_output9: 3d0997ee
conv_4_conv_1_lrelu/LeakyRelu:0: 3d0c8ada
convolution_output8: 3d3c358e
conv_4_conv_2_lrelu/LeakyRelu:0: 3d0c8ada
conv_4_concat_0/concat:0: 3d0c8ada
convolution_output5: 3d82801e
conv_4_conv_3_lrelu/LeakyRelu:0: 3d2244bd
conv_4_concat_1/concat:0: 3ce88239
conv_4_concat_1/concat:0_pooling0: 3ce88239
convolution_output7: 3d65d8d1
conv_5_lrelu/LeakyRelu:0: 3d2267fd
convolution_output4: 3d558bc7
yolo_conv1_1_lrelu/LeakyRelu:0: 3d08466a
convolution_output2: 3d871381
convolution_output6: 3d818caf
yolo_conv1_6_lrelu/LeakyRelu:0: 3d417182
yolo_conv2_lrelu/LeakyRelu:0: 3d2a10fe
convolution_output: 3e00160c
upsample0/transpose_1:0: 3d2244bd
bg_permute/transpose:0: 3e00160c
concatenate_2/concat:0: 3d2244bd
bg_reshape/Reshape:0: 3e00160c
convolution_output3: 3da08c4c
yolo_conv3_6_lrelu/LeakyRelu:0: 3d37859d
convolution_output1: 3e06d532
md_permute/transpose:0: 3e06d532
(Unnamed Layer* 119) [Constant]_output: 3bdfc04e
bg_anchor/FirstDimTile/Tile:0: 3bdfc04e
md_reshape/Reshape:0: 3e06d532
bg_anchor/Reshape:0: 3dff4c66
bg_bbox_processor/Reshape:0: 3e00160c
bg_bbox_processor/Reshape:0_cropping0: 3e00160c
bg_bbox_processor/Reshape:0_cropping01: 3c2e3b89
bg_bbox_processor/Reshape:0_cropping02: 3d03bbfc
bg_bbox_processor/Sigmoid:0: 3c00fb84
(Unnamed Layer* 196) [Shuffle]_output: 3d810a14
bg_bbox_processor/add:0: 3d9a065a
(Unnamed Layer* 198) [Constant]_output: 3bf989e1
md_anchor/FirstDimTile/Tile:0: 3bf989e1
(Unnamed Layer* 206) [Shuffle]_output: 3c077dc8
bg_bbox_processor/mul:0: 3c076e7d
bg_bbox_processor/sub_1:0: 3d810a14
md_anchor/Reshape:0: 3e06d532
(Unnamed Layer* 213) [Shuffle]_output: 394e7687
bg_bbox_processor/sub:0: 3e00160c
bg_bbox_processor/Minimum_min0: 3c2e3b89
md_bbox_processor/Reshape:0: 3e06d532
bg_bbox_processor/Exp:0: 3e00160c
md_bbox_processor/Reshape:0_cropping0: 3e067dfa
md_bbox_processor/Reshape:0_cropping01: 3cb89d9a
md_bbox_processor/Reshape:0_cropping02: 3d18091f
bg_bbox_processor/concat:0: 3e00160c
md_bbox_processor/Sigmoid:0: 3bfe62a9
(Unnamed Layer* 272) [Shuffle]_output: 3d810a14
md_bbox_processor/add:0: 3d96a98e
bg_bbox_processor/Reshape_1:0: 3dff4c66
(Unnamed Layer* 276) [Shuffle]_output: 3c077dc8
md_bbox_processor/mul:0: 3c058d65
md_bbox_processor/sub_1:0: 3d810a14
encoded_bg/concat:0: 3e06d532
(Unnamed Layer* 281) [Shuffle]_output: 394e7687
md_bbox_processor/sub:0: 3e067dfa
md_bbox_processor/Minimum_min0: 3cb89d9a
md_bbox_processor/Exp:0: 3e067dfa
md_bbox_processor/concat:0: 3e067dfa
md_bbox_processor/Reshape_1:0: 3e06d532
encoded_md/concat:0: 3e06d532
encoded_detections/concat:0: 3e06d532
box/Reshape:0: 3e06d532
cls/Reshape:0: 3e06d532
box/Reshape:0_cropping0: 3bfba075
box/Reshape:0_cropping01: 3bf979e2
box/Reshape:0_cropping02: 3c046aba
box/Reshape:0_cropping03: 39ce7687
box/Reshape:0_cropping04: 3b199f12
box/Reshape:0_cropping05: 3ce92096
box/Reshape:0_cropping06: 3c02cc41
box/Reshape:0_cropping07: 3a09a45b
box/Reshape:0_cropping08: 3b4686ee
box/Reshape:0_cropping09: 3c64b9e8
cls/Reshape:0_cropping0: 3e062b7c
cls/Reshape:0_cropping01: 3e3fe67f
box/mul_1:0: 39d37f9e
box/mul_3:0: 3b9f00db
box/mul:0: 3a0dca2f
box/mul_2:0: 3b601dfc
cls/Sigmoid:0: 3c010a13
cls/Sigmoid_1:0: 3c03f679
box/add_1:0: 3c094f1f
(Unnamed Layer* 514) [Shuffle]_output: 3b810a14
box/mul_4:0: 3b1f00db
box/add:0: 3c0a3cec
(Unnamed Layer* 518) [Shuffle]_output: 3b810a14
box/mul_6:0: 3ae01dfc
cls: 3c03f678
box/sub:0: 3c086f09
box/sub_1:0: 3c086f09
box/add_2:0: 3c086f09
box/add_3:0: 3c086f09
box: 3c086f09
BatchedNMS: 3e418f1e
BatchedNMS_1: 3c010a14
BatchedNMS_2: 3a953c43
BatchedNMS_3: 3c010a14
